node {
  name: "LSTM_1_input"
  op: "Placeholder"
  attr {
    key: "dtype"
    value {
      type: DT_FLOAT
    }
  }
  attr {
    key: "shape"
    value {
      shape {
        dim {
          size: -1
        }
        dim {
          size: 100
        }
        dim {
          size: 12
        }
      }
    }
  }
}
node {
  name: "LSTM_1/kernel/initial_value"
  op: "Const"
  attr {
    key: "dtype"
    value {
      type: DT_FLOAT
    }
  }
  attr {
    key: "value"
    value {
      tensor {
        dtype: DT_FLOAT
        tensor_shape {
          dim {
            size: 12
          }
          dim {
            size: 128
          }
        }
        tensor_content: "e\240\242\274lu\251=d\344I\275{\360\010\276\312R\267\275F\355E<\022\255h=\322o\263=\324\001\333\275c\233\002=Dy\315<K\316 >[7\237\274\267\307\326\275\241\226p;\3364/\276v\360\026> \004!\276\274\017u=E\351D\276V[\017=PS\021=\357H\020>\2448\217\275\250\207\220=\361\031\227\275\2265\230=l\272\271\274\272\330X\275\274q\003>\235\311\204=`f\360\2758\327\223=x\2375\275@\023\244\273\203u\343=b\325D\275P\277\370\275\372\023\215\275]\202\257=\274\233l=\224~\372=<\350\221>\306\217\246\2741\251\025\276V\262\267<\3012\024=y\320\324\274\307\366+\275\270\266\202\275l\240L=!>\251\274\212O\211\274\321\353\356\275]\177\351\275\321\376:\275\232@\305\275E\277\220=.\243\252=\025O\351=l\266\213\274(7U=|N\037\275k\275\372\275\002I\344\275\223\212\256=\'\346\365\275}\307\274=N\206\331\275L\303\034\276\262\350\002\276\325\032\242<\321L\223=\217\255\220\274B\364\216<\010j}>\205\243\004=:&H=*\237~<N\237\307\275\274\361\236\275Z\006#\272!.\326=>\311\323\274\035\350_\273\340\027\306\275\276\347F\275El\201\2748\307\237\275\rbn<\235\256%\276\3105\n\275\257{\317=p\256\254\274\352\033\3469\235U\371\275H\226C\274\225h\254=]q\236:\211:\335\275\311nh\275\200\010l=\275e\030\275U\302\003>O\344\217\274V$\304\274!\025\360\274\002\231\r>J\260\244=\275r\370\275\227\210\030\276:\270\t=\032\235\020>\327\036c\275ir\303\275\275\026\207=\205k\232\275\217m\260=9@\351;h~\232\275\240\254\227;\205>T=n\3372\275\223Z8=T\341\213=\375\223\205\275d\354\261\274|\354\201;\304\373\005\275b$&=\323\201\253<\"\373\342=\307Y\215<\230{Y=w\355\342<^*\260=\361\325\211<I\361\362=8m\'=\245z\020\276DV \275\362\347\350=v\013\257\274\246+\256=1? =\211\263\200=\237M\317\274\266\210w\275D\304\254=}\030N\275\241_\345\274\006q\306=\233\256,=\300\222f=\325\210T\274\330\221\000>\231\233.\274\363\317\215\275\236\376\010\275\305\022\242<\353f\034>\316\264\020\276\270\270\224=\326L\007>n\227\224\275\267R\204\275\237\270\277\274N\341\311\275\227\026B=\375[u\273\232\267\006>\275\034\227\274\275\215\364\2753>!=\303<\230\274;\301L=F\243@\275 xO\276\004\3575\276\321\270\275=;\304+==\001\257=\234\347#>\342\021\321=\355\314\203=\026#\263\273\340\006\030\276\356\331\t\275X!\221=t#\252=\204\245\333;,\032D>\005\324\327=.\026\337=\'o\021\276\202\263\340=g\036\375\2756\"y\275\303\002o=0\001\320\2745\220\315=-{%\276\222\306R\274\374\323\204\275i/H=\315\362I>\353\261\235\275J\247\025>0p\274;b\245.>9*\370=\301\375\216\275\232%\217\274\322P\250\274F6k\275`9Y=\3331\220\274+\224\202\274\245\313\027<h \350=\255\311\237\274\030\247\245\274\342r\036>m\020\257<1\333\205\275\316\021\030>\337f2\276\315Q\004= m?>\202\336\212=\315\305\024\274<\270h=\316\001\005<\377\035\357\274G{\306=[6\275=\307w\230\2754\234~=\207\355\271\274\343P\361=lt\374\275\264:d=\331\007\264=\325\355}=/v\214\275\236q\034>\214\370\325\274\347g\010=0\364)=\265\232\221\275\013a7=\321D\224<;ZZ\274\337\0047\276\305B*\274{\377x\275\267qq<\346\232\321\275\375\212\207\274\017\022\210\274\022:\010=T\261#>\231\335\\=c\021\317\274\340\302q={p\340<Ey\244=6\345\221\274XR\233\2750_\036>\006H\037\276\235y\243\274\203)\307\275n\212=\276@~\357=3\312\"=~\211>=0\000e=E\374\242\275\346\314\002>Jm\201=y\361\031>\357\341\036>T$\243\275\033H\311\273r\237\021=\247\224\010>\240\2458;\366\025\230=\362\231\366\274\245\007\035\275\005\027b=\223\212\241=bR\004\276\344\215\000>\330\0044\276\225\322(>\237N\360\275\212\363\232\275\310\217\255\275\004e\030\275C\r@\273\005\037\206=a\320\315\275!\303\027=\332#L\276t\210F\276E\232\257\272;s\002>\376Y8\275\235\034\310\2747@\205\274\302\363\332\275Tu\005\276\232\233m=\234\344!\274\272\031\003=\341\265h\275\275\220M\275\006+\021>\303G\245\275\003S\037=\322\214\351=\247\210\267=\231\267\245\274\270\036\302\274t\r\250\275\326\233\221<l\031\334=lK\223=\221\242_\275\334r\\=\365\225\210=\203\367O\276\0307N\273?g)=\247\303v=_\241\200\276\256\016\231\275kJ\217\272!\256\243\274\210T\337=\230V\310\275\254Rr\275\357\002\356\275\337\366%\274T\204\020\274\007pe\274*t\212\275L\325\032\274\373\034\326\274\351\252\212\275\373!\327;\235\030f\275\010\200\260=\361\211*=\323\3767=\004\374\242\275)j\004\275\025\001\235\275\301#!<h\377\200\275A\362\202=t\336\032>N\032\321=?\252x\275,\374\320;\235=r\275$\251\230\275~,&\276\031b\250<\213H\030>\032\262\327\275\254\207\355\275\343\034W\275\323\262\016\275\355rt\275c\334\020\274\227\'\n\274\000`\027\276\227\232\215\2755\002r=\200l\027\275\370\310\262<MA\232\275x)@\276\252\016\031>\256]I>\261\367\003\276%\300\252\275\374{\253=\3072\200<\016\275\370\275V\355\303\275J\274\353<\177I\'\275\352\316M\276\325/\026=W\332\034=i\375\355=t\nD=\373\342\254=\357Q\321=(\357b<\343\372\253\275h,\245=\267\010M\275\246G\213=\263\014K<=\313\266\273\300q\343<\256\010m=\231s\315\274\025\322-\275\020f\337\275\025\342\357=\222\277\237\275v\240\235<\350\252\237=\361J\341<\350\221\007<\032\017\200\275R\273.=\322\177\033>F*\255<\371\2339\275T6\026=\321\303\214\275\264mN\276\371\2533\275\315\035l>\304\370\254\273M\022\362;\277\3675\275=m=<\331\263A\275T~\346=c\204\220\275e\\\007=\212N\260=\251\343\325=\250\213\004>h\253\230<\227\375h\273\350\324X\275\023\331\252<\007\016\007=\340\224H\275s\201^=\315\031\021<\322\371\356=\013I\300\275\360#\317=8\267\256\275\000\215*>\202\206\305\275\347H\201<)\213\366\274u\227\235\275\322\031\243\2740\373\302<;\203\247=1[\355\272\037\371h\275\020\350\000;\224\177\322\275\315\3367\276\360\334\027>\305\232q=>:\244=\237\034X\272\367\313\t>O;\020=\223\266\356\274;\335\033\275<\276\016\276\007;\313=+\373v<s\321m\274\316\334\273\275\322\326\256=\325\255\363\275\342\344\255=~\314\212\275\\\240N\274{\236\321=zv<>8\240\332\274o\020\330=#\352\000=\346\244\231\275\255=M>oq\226=T?u\275\006\021\022\276\213\207\031=\234z\225\275\013d\273=;\246\025\276&*\277;\001\316\320\275\247P\321=\177(e=\234\336\270=\212\033l\275\272E\237;~\372\300=\271*\005>\310nY\275r\352s\274, \262;}\014\217<S\362\271=\340\302\206=\002\321N<\002\215\006\275\235\371\205=\253\247\244\274\217\254\007=:\365X=\322\205\324\275l\247>\276\3169L={R\272=\315\215\322\275&\035z<v\305\354<\375\303\005>\356\215\326<fg\372\275g\031\037\275\301[\025=\r\256\252<el\273<\025\322N\275\250\257\003\2752\"T>\264\322\251\2741\377\342\273\230\n\353<\333\361\271=\321\3306=\265v\246\272\247\237\345\275\333\216\014>\244Zj>\237\3357\275!y\246=\353\316\232<\000\034\226\275\351eF=~+r\275\216\036\031=\347\240z\275\352?\335\275S\273\022\276q\026\231=\336l\324=\257\306D\273b\006><\311\230W;\036\244^=Z;\346=\371s\200\275\320\236\264\273\035`#>\257\355\305\272\226x\001>\227]\212=\350\364\232=\204\372{=\253,\356=l\204\006>\211\356\220=\324\333u=\372\352\264\274\236\006\031\275\r\300\260<\3019\211=\006\332\214=f\340\312=c1\206\275=n\253\275xz\014\276\230\254\032\276\"\360\017>\004\'\374=\337Z\277\274\0374\034>G\305s>\344\261\013>\254\376\013>\257\014\260\275\205B\002>\262\310P=s\022\213=\007\037\313<)\224J;\305@K\275\035[\360=`\324\257<I\217~\275^\340\247\274\27220=\334\020\264\273&\270a\274\332\2019\275\324[\370=\020\036S\276i\311\347<\331\257\330\275v\353+=\351\230\202<\324 \326\275A\377-=\356\300c\274\'\022\262\2753\253\276=\241\005[\275f\345\364<as\001>\335\nW\275oTL=\345)\022\275,\206\321\275\034\345\013<\"Y)\274WKX9x\350\310\275%\375\221\275vQ/=\035ej\275s\226~\276\032w\301\274x\257\216<\250V\242\275E\034\260=\251\0027\273v\341\022<k\274$>m\265\372=\306g\226\275\206c!\275\234?\264;\345OZ>W\226\000\276\266\016\255\274g\205\241=\320\025\007\274x\023\351=S\326\225\275\312\266\207=A\035\275\274\034F\"=~\217\331;\337 \370<`\331\203=,\231];\tz:=\200\324\340=\246\213\367=\306\3237=\372\313A=h\336w\275\202\"R\275A\240\023<Z\264\374\275\020s\252\275\276\356W=\263f\200\275\314\345B;\004z\021\273n\202\271\275t\204R=\301#\335=\0011a<ld\007=Y:\211\275\373\2440<\rH\360\274\226\320\203=\371\025\247=\017_3>\0142S=x\356\034\275\006\373\334\273\202%\216\275\276\242\362\275\236u\217\275\321l\224=\255!\234<A\230P=\230\234\322=\301\275\343;\"\362d>\024N\246=\255\001H=\243P\272\275\264\303\237=\344\312\343\275\022\221\265=#]\363<\370\343\236\275L\245\273=\270\255)\275!U\221\275\027m\332<\306\204:>\310\276\027=f\371L\275\224\034\267=:\233\222=@te=\275d\006\275\240(\363<\370\n\214\274J!)=YG\031\275\001\350\n=\361 \"\275am\224\274\002\303\001>\025 &\276\224\032\201\275\2644\253\275\001\r\256\275\315\\f<\352-\233\275\347\031\002=\200\002\271;\316D\361\2753\206\221\275\255\013\202\275\035\277+\275}\r\035>w\252\226\275\213L\215=\224\266.\276)\025\016>\316TC\276})\303\273!\231\227\274\354rE;\304\337\322=\302\316\207\275\tg\357=\315\351\005<1\216\031\276\322\335\017>\334\270\250=\226\276\022=\377:P\275!\352\240\275\346,\010=W\367\000\276U\241\016=\010\253@=g5\256<\221\202 >,\235\347\275\350\222y=>\300\036>\017\337\235=\013\370E\276\210qT\275\333R\355\275w\021)=o\340\207>mH\311\273\302\254\t>\326p\215\273\177\373F\275</U\275|\261E\273Vq\362=(\250\242=\262\255\346=,mA=a\324j=\006\230\271\275\017\356\277=G)\226\272=Mm\275\316\010\375\275\374\277m\275\272\243M\274*\'\003\276F\177-\276\225\361\021>\352\327\247\275\001\035\245\275\25621\275\253\363+>n^\335\275x\023\214<\227\257n=`d\252\275\330H\265=\265(p<`\000H\2741\234B\276L\241\261=~!\023\276\037\223d\274/\242U=q\265i=M\234O=4\t\264=s\n\214\275\210\260\232\274\243\025\314\275\323\305\'\275\324\361\273\275\343\364\211\275\261\030\356=\233D\314=f\306.;\334\264-=\323\235\323\275;6\251<\210\237\234=\203\316\002=\334\2572>\345%f<p\315\002\2755\250\324=k\265\200<yJ\244=\323\335\217=\240\265\277=\216\323\315=\035%\317=EZ\260=^\302u<\271\272R;H\257\325<\226\364\247=}q\240=\327\002\354=o\030w\275n\013\235\273\302\r\027>\341n\326\275\026\260\270=i\002\002>\363\371=\276[\200\327\275\030j\260<\207$;=%\035\013>\014\270\211\275\307\005*=\362\214\365\275:\365\007:W\256m=\274\301\035=J\032\244=T\204%>\034\314\221=\375\242\276=lHx=o\r\205=\320\311\341\274FC\273\274\222V\306=\025y\201=3\201f=k\205\t<N^r=\264\243\006>\300k\341<\213\035\211=\216\037%>w\206\342\271\035#-<\327\3133=\310jh>\352\362\212=\216\362\340=@\353\026\276\272\272\262<\241\254d\275\313\241\276\275\221|#\275\"eu\274R\276y\274rc\017<)h\217\275r\362\241<\301\307\225<\321\231\032\276;\363\\\275~(9>\301\371\013\276\207\310\021>I\301S\275\355\367\320\275\277N\036=\360\355\311\275\233\177\261\275g3S=\037\201\262\275\243\010\225\275\024\003\313\275:\334\221\275(\231\252\2748\237\307=\366\275\341\275\255\371\024\275\002\274\266<\200\315B\276\240\235\250=\264\267\037>Z\335C=l\001\336\275JN\331;\267*\261\275Y\325(>\251\266]>\223\232\227\275\346+\020>y\366\364=,.H<\017\325\226=VI6=\000\311)>\206v\351=-\222\352\274\246\253\214\274={\252\274\220\227\364<\360m\233=\320H\351\275i\263o=\312\303\341=Pm\212<\325\224(=\230M\014\276D\266\205\275\373F\320;J\230\370<\030\313\357\275\202~\024>m\367+\275\355\016+\275\342m\221=F\351G\275w\201`=D\027\">\263\225\031\276\271\205\214>\260=\244\275\326n\312=\251\371D=\210\367W\275q\326\217\275\220 \247\275m\344\312<\346\235\232=\321\320{\275|z\234\2758\332W>\230(Z=[\202\342=\026\375\244=`\240\332\274+Y\037\275\317G\302\274Hd*\275\204;\024\275\230\232\312\274\027\332\204\275t\273\031\276\343\273\001\275\250\322\275;\363T\274\275\206\007\016\275yX-\275\274\230\027\274\325\326\033\275\273y\332\275\373\316\007=\200-\206=J\357\014;\377U\201;p\341\'\275\003i\\\275MV\022=h\342\016=_\314m\275\337}\275;\205f\377=\327\235\022\276\333\'|=r\221\232\274\352\277\331\275W\224A\273\016=\204=\312\376\212\270\354\037\244<g\343\376\274\273\260\203=\221\334\235=\321\"\025<\262\270\371\275\357\277\364\274\\}\023>\034N\014\273:\352\t>T\324\277\275\200\036\2278\215\307\260\275E\220\210=n\374F<\237@\255\275\206\244\032\276\322\004\t=K\251S\275E\347?>\016\022\217= \032p9\023\206\023>\021\020\223=L=\257;\244\225r\275\236#H=\240\246\217<+\007\233=f=\032\276\223\255\217\274Q\n\n>\352k\261\275\363\030\304=\225n\313=yh\351\274\340\006\351=\321\305\307\275X\364\370\275H\307x\276j#?>\356\345\017=\013\272\023>\316\036\177=G}\257\275\0166\205=\327\240\375<\351\265\026\275\352P\264<\034:\267=\341\351s\274+\377\304\275\342Q\002\276\177L>\273\304\211\366<\\.:\275v\351\200=\345\330\212\275w\315\315=R\021\250\275\320\332\232\274`\221\376\275\020jN\276\357\254\213\275|\002\337\274\342\247L\275\211\002b=\030p\000=\0255\363\273\206P\275;\273\374G\275cs\345\275\334\371\021\276\217\245\233<\323x\235\274\362\r\r\276\315\302\317\274\033\252\005\276\347*\002\275\254\023\274\272\\\227n\275<\305\022;0\260\201\275\"\344\r>\243\267\254=nh\255<\327\014\312=X\372\277\275\337k\230=\031\271\026>\2729\242\274H\243\371\275\3142\275\275\251h\377<\357[\204<\023O\034\275\235\001\225=\203n\260\275\317|\327\275m\236\016\276\273\370\314<\341(,=\274:\017\275\207X\372\273\222\207N\275k\243G\276\255xB\275\341\013\376<\317,\263=s\303_\272\340\326\312<\303 S\275<\3010>U\350\005\276{\261\326\275\r\177~\275f\323\305=\036\3706=\027\241\014\275\337\271\225\275\020\341\365<\016\376\000>\266\242\253=\226B\202\275G\244F\275\230\203\252\274\366\274\'=\236`1\273\242\352\263=\245\364\200\275\031\247D=\302\321\316\274>\021.\2744\233\335\275\261\215\347<)\213_>\322aj\276\247\276\201<\257\306*=\356d\377=\n\254R\275\007i\350\274\261\017\223\275\000\255\260=\276\335\255=}\335\205\275\273\2256=0\004\253<M\343\343\273C;2\276e\313\235=q5i=\352\201\313=\307\213\317<&]\026>\3058\000\274|\300\020=\302Ub\2740\211\263\274\260{\324\275\006\206\252=!N\311<\203\034\345<\026\n\003>!\000-<A\344g=\242\237\005\275\275\230~\276\"\305\203\275\310@/=\243\035\201=\212\373\340=Q\303D\276\346\024\365\274\337}5=\365\323\004=\225\335Z<\352\372\203\275\rK\342=\301\310\343<\326kK=\234x\300\275boD\276O\274\275\275!\251\354<vh\272=h\207\373=Z>\333<\335f\271\274\017\203\263=\216F\032\275x\255\r\276\224}\211=b{$\275\360\336X<0ph\275\017[F=\313\001\254\275\344\245T=D\371\017;\222<s=\313\265\376=uE\366\275\020`\250<SB\241;\277\312Q\275\031\361\002\275dL\261\274\306\355\313\2753\027n\275\306\273\n\2758\274\306\275(\022[=\306\242\330=\242\2644=[.\270<\024\250\027\275\304I\371<\023\343\231=8Y\r>\304\376\271=F\3220>\352r%\276\245\321\266\274\241\354&\275\231)\303\275 \332@\274\270\271m\275\225\266\306;\303\036\324\275\355!i\275\301\274H>ag\362=\3128/\275X\230\254=\326\325\023\276\274\256\267=\364\005\t\275\360\277\004>A\312P>xK(\2756|\233=\020\364\357\275H-\321;\275 P\276Hu\332\273(\323+\275R\354\207>\315\231\014\275\251\371\275<\230\231\323=2\204\356\275\"\203\022=\207\014\300\274\010\206_\275b\306\200\275\362\261\211\275]\016\337=v\020(\273\204\017\276=K\224^\276\353\306==\365\305\322\275g\n\341\275\357\213.\275!\237\223=\213\033V\274\275\346_;\226v\311\274{\002\313\271 ]\252<D\233\231\275H\313J=\026S\310\274wu\334</\271\254\275\352\271\335\275 `\237\275;\302\360<\344\026\200\275%\376\037<\n#4=\230\262\017\276\247\0223\276\365\247\275=q\201u=q\026\237\274\260\031\327<\352\367b\275\224z\243\275\004\000\322\272\233\017>>\213f`\273\034\242P\275L\331\234\275\261\271G<>\300N\275\343\376a=Z\231\301<\376\345\337<\035\345\211\275\005\"\t>hp\361\275\356-\273\275\305\346z<9\314c<\262JA=E\366m\275\002\010 \276\340d,>\277O\337\275\326\232i=\306\372\242=\"\002\241\275\277\361\330\275\360R\003\275N\221>=\020\025\202<1i\021>\215\002\026\276\250\201X\275\253J\035=\214|\376<R+\005\276<\340\350\273^\303\332\275]n\036\276\321\250\024=U\312\256=\025O0\276\342\216h=\214\360@=\017\017F\275\007<\233\274\274\n5\274\036\032\005\2752\260\026\276\327\242M=Q\036\005=\002\253L\276\214\350\206\274E\177}=\241En\275W=\n\276\342M\336=! a=\215\352&>\370\273e\276\217\227\310\275-K\265\272R;\263<\327r\347\273+Zy\274\233me\275p\'\243\271\327\345\r\274\315G.>d\226\340=\250\257\340\2755\003g=T\306\007>A\374f<T\021\325=\373:\265=\017^W=\324Y\243\275\276qi=\276\321\327\275\267j\264:x\224\327=q\2371\273sc\327\273P\315\352\275P\035\252\274\260\t.=\271\234\254\275h\206%\276\203o\324\275O\211\302\275\261\235\236\274\004b\273\275\230\332\223=\214\250\364\275X\305J\273\214\000\000=R\201\220=\310d\264=\337\346u\275\253\216l\275\363\327\210\274F\227i\276\355\344\323=\216\345\373=r9\201<G\n<\275\010<?\275W&\266\273\245\356D\274?\230\272\275|\021\200=\305q\333<\026o\022\274\331\255\206\275g\310\314=<\306\304=\356A\375<jQ\310=${\203\275\347\321\264=\'+&\2766\336\n=\276}\t=`o\236\275\300,\201=\230\367\344=\"\014\313=\342)c\275\346\201\210\2740\006\377==O>\275lR@\275\302\014\027\276\033\234\313<\262\025\320=\0214H>\247\037y\274VYE\275\376\000\034>\336\377&\276\240\346\025>^\025\277\274w\300&\276\035\366~<\251\033\231;\017\264\302=4\005_=m\311`;\375s\013\274{\277\211<\232c\356\275\377`==Wj\367=4\273\211=\002\224\203=\307\222\321\274\016W\356=\374\241@\275\3511H\274><\244\274\300\245\007\276<\033\004=l\021\211=k\001!=ve\032>\2149\345\275\024\236:>\313\237\r>\000P\262=\350\330z\275\256qh=\242\346\265;\345\363\240\275\233\213\262\275\206\263_=\213M\330\274\235\031\360\275\'N\324=2)\336\275G\241\344=q@\227=!2\201\275hy\315\274\333~\260\275\244\235\336<2\305\201=$\273I<\177\367\006\276\325\351\'=\237\035\224\274\034,\270\275B\265<=\345\254:\273~\235\253\275\227\336b=%\023N\275\275\272\236\275\374O\306=\025C\327\275&_\002\276<9\310<\250E\363=\231\217v\275\266\242k\275\304\216\245\275r\237}\274\374\223\r>\225\005\235\272\302^\314\275\204\305f\275{J\376=g\202p\275\340\375\302\275\274\0035<\265\001&\276,s\230\273pu\003\276x\031\377\275\364\312\254=\235\3217=9\343\001\275)\024\247\275\234$\202\275?e\t>\342\315\242;\"\020\024\276\372\230\264=\223\277`\275\340\177\240\275\372p\246=\213\300\203<^\374\276\275\nT\227\275\241\215\264\275\360\032\334\275SK\344<\271\"1\275\360\241\344;\236\333)>\374fX\276f;\337=\205\223\204=\313\262\202=\332+\374\274\205]\337=?\271\031=\010\370)\275A\241\216<"
      }
    }
  }
}
node {
  name: "LSTM_1/kernel"
  op: "VariableV2"
  attr {
    key: "container"
    value {
      s: ""
    }
  }
  attr {
    key: "dtype"
    value {
      type: DT_FLOAT
    }
  }
  attr {
    key: "shape"
    value {
      shape {
        dim {
          size: 12
        }
        dim {
          size: 128
        }
      }
    }
  }
  attr {
    key: "shared_name"
    value {
      s: ""
    }
  }
}
node {
  name: "LSTM_1/kernel/Assign"
  op: "Assign"
  input: "LSTM_1/kernel"
  input: "LSTM_1/kernel/initial_value"
  attr {
    key: "T"
    value {
      type: DT_FLOAT
    }
  }
  attr {
    key: "_class"
    value {
      list {
        s: "loc:@LSTM_1/kernel"
      }
    }
  }
  attr {
    key: "use_locking"
    value {
      b: true
    }
  }
  attr {
    key: "validate_shape"
    value {
      b: true
    }
  }
}
node {
  name: "LSTM_1/kernel/read"
  op: "Identity"
  input: "LSTM_1/kernel"
  attr {
    key: "T"
    value {
      type: DT_FLOAT
    }
  }
  attr {
    key: "_class"
    value {
      list {
        s: "loc:@LSTM_1/kernel"
      }
    }
  }
}
node {
  name: "LSTM_1/weight_regularizer/Square"
  op: "Square"
  input: "LSTM_1/kernel/read"
  attr {
    key: "T"
    value {
      type: DT_FLOAT
    }
  }
}
node {
  name: "LSTM_1/weight_regularizer/mul/x"
  op: "Const"
  attr {
    key: "dtype"
    value {
      type: DT_FLOAT
    }
  }
  attr {
    key: "value"
    value {
      tensor {
        dtype: DT_FLOAT
        tensor_shape {
        }
        float_val: 9.999999974752427e-07
      }
    }
  }
}
node {
  name: "LSTM_1/weight_regularizer/mul"
  op: "Mul"
  input: "LSTM_1/weight_regularizer/mul/x"
  input: "LSTM_1/weight_regularizer/Square"
  attr {
    key: "T"
    value {
      type: DT_FLOAT
    }
  }
}
node {
  name: "LSTM_1/weight_regularizer/Const"
  op: "Const"
  attr {
    key: "dtype"
    value {
      type: DT_INT32
    }
  }
  attr {
    key: "value"
    value {
      tensor {
        dtype: DT_INT32
        tensor_shape {
          dim {
            size: 2
          }
        }
        tensor_content: "\000\000\000\000\001\000\000\000"
      }
    }
  }
}
node {
  name: "LSTM_1/weight_regularizer/Sum"
  op: "Sum"
  input: "LSTM_1/weight_regularizer/mul"
  input: "LSTM_1/weight_regularizer/Const"
  attr {
    key: "T"
    value {
      type: DT_FLOAT
    }
  }
  attr {
    key: "Tidx"
    value {
      type: DT_INT32
    }
  }
  attr {
    key: "keep_dims"
    value {
      b: false
    }
  }
}
node {
  name: "LSTM_1/weight_regularizer/add/x"
  op: "Const"
  attr {
    key: "dtype"
    value {
      type: DT_FLOAT
    }
  }
  attr {
    key: "value"
    value {
      tensor {
        dtype: DT_FLOAT
        tensor_shape {
        }
        float_val: 0.0
      }
    }
  }
}
node {
  name: "LSTM_1/weight_regularizer/add"
  op: "Add"
  input: "LSTM_1/weight_regularizer/add/x"
  input: "LSTM_1/weight_regularizer/Sum"
  attr {
    key: "T"
    value {
      type: DT_FLOAT
    }
  }
}
node {
  name: "LSTM_1/recurrent_kernel/initial_value"
  op: "Const"
  attr {
    key: "dtype"
    value {
      type: DT_FLOAT
    }
  }
  attr {
    key: "value"
    value {
      tensor {
        dtype: DT_FLOAT
        tensor_shape {
          dim {
            size: 32
          }
          dim {
            size: 128
          }
        }
        tensor_content: "V\023\014>\002`\314=\030\213\020=,\037\210:(\356\226\272\201\247\032<\307\360%>\367\032`\273$.\210\271\243O,=C\353\272=\270\212s;\363\315\026\275Pm\376\274\243\262\000\276\212\364w=\231i\304\275X*\207=\357\212\001\275\234\226\201\275Z|\364\275\215 \363<D\257E\274\022\264X\275\273\257)=\324\022\216\275\035\2730\275\033QE<^-1=F\022\301=?\357\301=\270\217\325=f\345\323=\371]\006\276\t\014\016\276{\020\311\275\262m\234\275\"\314|<\035\207I\275\223\270\247<_\n`<\020B\207\275g\360\354\272\251\210\322=h\2108=\035{\223\275\330G\027=\020\247\320=K6\220=`c(<\342r,\276n\336,\275=\005\312\273\007S\\\275\263L\211>\023\334\241\274\3642\351<%\032y=\323\265\255\275\254\365\224=\027\303\037\274\277\203\372<A\250\217\274\001\363b\2750\336\037\274\033\230\240=\375\374\037\276YXk=\035I\177<(\344\217\275;q\035>\227\377U\276\262U\226\274I\322x=y\327\005\275\274\335\221<\225j\213=:\n;\275@\342\216<\017\345\271={*\311\275\263\020\034\275\334\n\032\275\327\366\325\275#\231\332\2747\346\242\275(0\217\274V\374\027>C&\007>d\220\020=\363\337*=O\313\002\276\331\254d\275\270bd\276,\r\225=\027\370\205<AS\217=\236\336\352=\360ME\275\335\014\216=\347\361%>I\306\267=\217\356\356\275I\026\031\276\270\177\337\275\340\354\274\274c\010\245\275\316*\203>\314\205@<{?\301<\263\010t<-:\344<\322N\274<h\2458>87\346\275\314\351o=h\t\240\275>b\037=\235\300\020\276\220r\215\275X+B>\235]\007\276P\374(\275jt\214<\022?\256=\245\336\254<\013![=\005\270[\274\235\177U<\210.\324\275\260\234\253\275\"\254\023\275\033\271\245\275\347\262\241\274.\036\220=\353\246\216<\r\262k\275\261\344\254=B\303\324<\"\240;\275ri\026\276\202\212\261\275\377\003\037=\222\223\005=\350#\025>Q\346#\275\212\230N\275\364\314\254=\272y\221\274\362\277\034\275\242Y\010\276\337:\271\274\251h%<G\273\342\275\373\245\226={\236\r>\277\332\022>\003xB\274\007_\017\273\377wk\276\232f&\276\3148\230=\353=\"\275)cA\276{)\010>\365\'\312;n\\\006\276\311mU\276>Z\031\276\311lh=\210 \001>\304\271\245\266\350b\231<\2318\357=\201l\000\275P\206\016>=\2433\275.?6\275U\362\335\274\026\021\313\270\355}b=\231e&<g\004*\275\364\216}\273\203\221\311=\013\230,=r\206F\275\313\353#> \372\246\273\265\017\032=\233\345h\275,P\207=\212\356\\=y\360Y\275\277\211\351<\332\210\n\276\370\241\332\275\327\363U\276\220:\275\275\233\261\n\276\014\351\200=\204\355\r=\250\373\223\275B7\250\275j\214\241\2751i\245\274\032h;=of\377=\"\nB= \026\227=Q~\262<<Ru\275~%\326\274\355\277$<\244\\\274<b\250U=\034\357\306<\230\177\335<N\270!\274$\rh\275H\340(=\362\350\000=OT\227\275\302)\221<*\344\275\275\20133\2758\340F=\225\342\243\275z$\257= \234\305\275D\333\362\275\254\014\375\275Ej%=]\223\260=p\257\350\275\376\016\221<\365\235\021\276e~\005\276\017Z\330=\332\345\026\275\220\247\025>\371\004\"\276H\r\256\275\003L\332\275\340\033\014>\366Fm<\002\2002\275\201\253\366<N\237\227=\355c\226=\017\255\206\275\234Q\370=\253~\022\274\n\223\217\275\271 \214\275;\\I\276\350|4\274\240\0053\276\251b\177\274\207W\036<\261q\337\275\275\275\317<\\3\215\275\327\005\237;\270}\235=g\312\224\274\250\002\022\276\211G\204=L\326R\275\256A\316=z\230\226=\231{\352=\332Q\277\275\265\344m=\261\263\036>\313T\302=2=\223\275\3139(\274\351\242\366=H\205\244=\\$\316<O\366q=\271\272\005>%\361$\276\337\026\205\2744\366\'=O;\316<u\332\327=\207\205]\274\216$\252=H\242;;\216,6>\304\204\252=\342YV=TF|\276\216\357\204=\266\345\177<\006\206\353\2758\242\327\274\337@\327=V\323\215=\026O\027=\276p\014<\200\262I=\261%\331<\337\227\032\276\017\221\247=\2146e\275\032\007w\276\277\211n\275\202I\317\274w`D=\223\372u=\2657\206\275\213\341\342<0i#>\372E\332\275\213\375\336\275\034y\244\274Y\363\331\275S0\304\275\025\346~\273\2077a\275<P\216=R<\270=\020{\013;.\342\250;\210\265\343\274\230\272]\276 \277\231<\023\264h\275!.\353\275\202Sa=\251\"\014\275D\335\242\275\310K\031=\225I\275=\210%\210\275S\213\206;4e6=<zN\275\312\232\356\274\350\337\240\275\243\032\266=\315\363\n\275U\207J\275fp\324;\257\256\273<Q\246\267=K.3\275O\325\234\274/\334(\275\357y\203\274\347\020O=\317)\311;\310\0302<jd\004=\341\"$>[\233\004\275\317\026\345\274Bf\">\004*\261\274\372\0322\276\210\277Z\274\262rE=\345\376\215=\024\032H=\236\220\346=z\310\036>E@\210\275Y\320|\275\3774\t\276q\327.>$\353\2149\312%6\276\2548\363=F\363\014\276eE\014\274\267\300\006\276\016\3236=lw\202<Vp\234<\223\313\235\275T\025\355=\224,w=\362[ \275\272\357\\>\263\216]<L\226\r\276\243)\301\274\312\'\336<\007\313\260\274\310F\325\275\n\233g\275N\225\334\275?\003\224=\314\316\247\275\t|\232<M\371O=\333;]=\260\0347=Xa\377\273\220\370\202\274g\323\033=\031\223\021\276\215\r\206=a\2560\275w\316\340\275\377\311M\275\321\214\251\275$T*=\306] \275\'\225\333\275?`$\276\273\001\314\275M\313\034=sW\347=K&\031\276A\236a=wiX=s.\344=\352\252\313\275\2220\t\275\365\236\034;\223\256#\275\224\010\352\273\324{\342\275R\243\241<\223\321\244=wO\366;\201\240\310\273\227s6\275\305m>\2766\347\025\276\336\263\232\274\332\302c>\306\225\364=\257_\344=\370y\323\275,\202\037\275\350*\245\275iIN>\204\266i<\300k\207=\207\212\004=/\031\227<z\013\244\274\303\226\327=\272d\312\274\257%\206\275J\004F=\033\237D>\0139\200<\247T\334\275\342\204\035=_>f>\260\276\336\274\255\230\021>\315\357\316<\030\261\361\275\r\235r\275\303\203\032\274\241c\006\276\273\2531\276\016y\007=\321\300\264\274\021\177\300\275\365\374@=\216\376\343=\316\210\023\275\t\351\254\274\002z\030\275\331\366\022>\362\013\244\274\340\231v<\276\310\255\275\222\021\366<vB\204\274\211ow\274\216\240\362=5\301O\276\373\363\020>\364/\004=x|\275<\006a\240;/u\317;\016\263l\275\312&\244\274@\322\350\274\325\003\205\275\034\232\007>@\321];\217\2655<\326i\010\276\233\376\335<\330\350\212\275\324B\200\275\342A\253<\332#\302\275\320@)<\017\240\204\274\277\002\034\276\261:-\276\340\337\346\275\260L\251=\232\007-\275\257\004\225\275\334\327\206\275\t|\216\273\272\265\266\275\355I\310\274\326\323\202\273\222D\346=I\337\305=L\261\t=\316\236\271\275b\305\036>\265\250\215=\340\365\227\275\321O\224\274\346\201\001>\325\364\330=`\271\252\274\020\212\244<]W\265=\037\200A\275\035\312N\275\271G\244\275\217\017H=\004\324\004\275\002\213\035\275\177=}\275\252\232<<\263kx\275\321\257\032\275^\250#\2758\342\307\275\244tJ=QI\233<B\326\375\274\036\253}\276\316D\307\275\007 \310=\200fQ\276\263;\'\276\342\270\034=\303!\212=\260\263\352<\201\035\365\275\210\244\202<ZY\201\274c\201h\275\331\026\301=\203H\260\275Cf\306=\013\311\217=$\240\226<D\365\031=9\032\033=t\256\242=\037\250P\275\310 \211=4J\311=Q\362\014>\335\246g=\354&\251\275%\037)<;\001\265<6B\361\275\347-Z\275\222\017\303<Q<\206\272\270\032\017>g\033\231=\340\213\327\275X8l\276.Y\036=\000\023:=\226\267$= `W\275E\3463\274;\356\036<)\266\006>\315\310J=*\251\261\275\346\322\274={\346Z=\t\017P<\370/\356\275o\010\030\276\217\223\021\275\237P\333\275\t\250\010<\241\016n\275D\031U\276\370\223y\273\201f\335\275v*c\274M5\362\275\254J\033>sj\027>\312L\216\274Z\275\032>%p\r>3\363M\273\262B==1\322\220\275\017$\377\274\226\322~=\034\010\221\275\354v\201\275L\034S\275\231\353\270\275[\373\222\275\214\355\345\275IT\213\275\233\2554>n\201\n=4a5=\337hl=cI\237\274p\251\026\275\035\322\237;\335,\222\273\202\220\333=\310V\000\274\227\014i=JH\316=\350>\360=Q\353\202=\305q\001\276\t\020}\274]%\237=\335\tO\274\255\233\004>\204y\220\274i\006\036>\226\003\271\275LP\004\276\335\341\335=\317\272\234\275\365\352\013=\255K\304<=\311\215\275\350G\310\2758\270\013<\212\266\332=\265\236\306\274;\031\262\275U`;\275\257n\002<\227\316R\275\313\247\223\275\236g\344=\032M\001\274\333~\240\275\321\001m\273^\223\256\274\200\027\021\276\317+@<G^\332=\342\346\274\274\302\202\032=\237t\205\274m\tq\275i\263\r\275X\224\263<=5\313\275\222\261\214<\222W\372;\316J\014<\212\026\024=\340\334\345\275u\214\246;\034\353\207=\265]\365=Q\035f\273\023\244\301\275?\303\305=zqf\275\224\217\263=/\322\375<\353,4=r\203\303=q\204\237\274+\356H=\005\014,\276\\\t\034\276\216y<>\301\213\204\276\261\253\303<\2166\316\275\260\307\247=\326\216^\276F\013\376=F\337\303=\323,|;\n\340.\275\377Zd=\320\320\177<k\311N\275\220K\371=i\023t<\340)8>\302+\247<{`\356\275Q\374\254\276`w\326\275\321{\014\275B<\r\275\031G+\276c\203\372=:\363\223<n\267\244=\267\247\215=\343\003\220\275\302*\304=\321\310\013\276\376F\027\271o\245\027\276\203\237\005>\234\304\354\275\001\244=<m\257I=\305\257\205\275\374\353\261\274\325\222\267\274\321\212\333=\262\233H=\006\003\224\275\203\r\331\275\037\025\231<\323a\342<\213\032>\275\313qJ\275\254\335\202<\006(\224<\374<e\276\223\033P\275j\000\245\275J\211\314<H\017\337\275\204\023\241\275\313\361->o4\320\2758G\207\2755\214\235\274ld\027>j\3124<\274\302\002;\311\244\236<\324q\025=\340\r\366<\022(\213<\262z\004\273\014\253\236=\310\324\223\275\201\013Z<hF+\275k}\337\274c=$\275\177\016o=\255\"\200\274\244\013\235\274\241~\336=\226\002o\274J\r\234\273\376(e\275\361\203u\274\010\014\227\275\233\204\230=\014\370\r>\263\341\004\275\303\202l=D[#\275XQ\217=v\306\366\273J\377+=d\tZ=\250\253\264\275AW\016\274\350\344\334=\322@\037\275<&E\275\243\360\333=W\3621\276\275e\002>\337\203\205\275\016\326\342\274\212\335\026\275\300\350\264\275\261iT\275\250\372\357\273u\305\013\275\263\252G=Z\275H\276IPK>\273\322\236\275\305\022\303\275\250\026\017\274Fd\243<\227\322\270<\256\272w\274\344\261\007>\363\340\242=\035\373\360\275luS\276\001+\231\275\217\027\307=\236jp>:\303\272=\270_\"=\006w`=zu\224=\342*\322<\267{M=\271-\212\273\367\274Y=\374\241\263=\317\254\026\274\262\252i=p\334\370=\266\226\024>V\350\364\2752\317\323=7X\326<\240\305\356\274\242\334\224;\277-\031=\330\250\003\275w\2213>\321*\222\275\252\030\034>+\305\275\275\003\232\212=\373\374\204=\363\261\023=r\026\211=\350X\016>=o\274\274\310\235\214\275\224e\177\275^d\236\2755+\002<\341\037!\274\250\241\216\275\240\300\275<\332\224\330<\\\023\"=B\252\222=8\321\023\275[\227\374\273{\334\027\276\374\361\002\276yh+\275\221\336;>8;\027=\207\376r<\032\202\025\275C`~=\307\361\211\275L\024@>\316\271\242\275[M&\272\347\271\014=\226\345\330=\367\216\246\273\325\345\310\275Q\205)>\312\031\206=c\203#\2753\261\243=O\357\261\275c\227\215\275In\200<9h\271\274?\300~\275\325Y\266=\336\332D=}\255\272\275\2173\016\276\227\231\233=\345\363%=\255\033\302=g\315\274\275M\362\214=V\3772<\205\r(\276\227\217\001\276D\216\">\025\001\000>\240OC\273\324\257\001=)\357\014>P\314\333:\202\373\034<\230\026\026=\210*\016\273\016$\\<\226}\013>\202\375\323<\216n=\275\335\240\330<\354\217A=\256\350\231=\2215f\275TK\267\275U\272\274=}\322\211<\347?_=\246\2055>\227\211\315\275!\356\026\276\267U+\275TiG=&\365n=?\300\266\273\243\252\277\275\345u\347=\217\3123\2761\2527=p\254\230\275\006\216\203\276\017\r\327\275\201\360\247\275J\004\005=\225\371\242\275m\037e=\3535\321\274a\013\001\274\244l\255\275\335\203\023\273\203\364\230<:\t&=]\203\035\275\265\332\336\274\301c\211=\236\265\347\275\352\206R>\216\276\263\275\314\257\211\275\212r\232\275\355*\206=8<\217=I[\301<P\370\032=O!\206=\210\325\314\275\020\t\313=\231\357t\275<\017/\276mN\224\275_\241\023\276\277O\265;\371ex=dq\306=\306d\344=\234\325\264=\266v\230=\003\"\300=\251\026u>W\356%<9\203E\275/F\365\275\354\375Y\274\037T}\271T\031\274\275\005\271\357\275$g;;\345m\204\274\2468l=\264\220\207=\251d\325<\217\351\253=Kz\236\275iZ\243\273?o(=}1-={\0341=\000\276\234\27503K=\237\031p\276\020\0346=0\257\236\275\343\265A\275\310I\001=h\270\354;?\314\225=\316\260\351\275?*\030=\232\360\364\275\003\200\212\274H=\205\275=\262\236\275P\254\275=\225\324H<\036\371\213\273\215\344h>\306\250\367\274\253\225\217\274\017{G=\352\371\250=\322t\026\274\304\365\342=\037(\002\276W*,\276\264>\231<\313=x\275\203{ \276\377\272_<k\222r\274\r\225\032=?#\263<8{\266<\361\312\202\275W\032\314=l\376\031=\326\246\022\273\031\335P\276\036M\317\275\261\360\347=:\247R=\275\200\036<e\232\215=\305\226\375\275\236\372\327\2759\311\374=\255r;\275t+\321<R*\316\275\257ZA<0\r\267\275Y\337N=\332\300\243=\031\250\337\274\245b\354\275\263\036\2059\021\rB\275\002\025\014=&YF=\230\220\337=\325\210\343\274\001\246\317<\304D6=\357\216\025=h(\247<z\347L\275\374(1\276\010&\023\275\342E\">\276\033\261\275\006\361\253\275\250\212\272\275\245\021\014<<\036\n>L\342\347\274C\300&\274\312A\276\275mX\315=c\240\016\275\0022\320\275q{Q=\2570\027\2750J-==\330g=\010\324->\274\272\240\275-\020$\275\205\247\253\275\034\352J=\310\270B\275J;\201<f\264\177>8\002a\275\337\241\344=\tE\347\273\016m\370<\024\000\207\275\275\037y\275\237J0\276(\350\242\275\262\002\233<mL}\275\25767\276\311W\023\276\217\001\205=\327\340\035\275\023\332M=%\214W=\263[\r\275\202\214[\272\366k >\333\377m\275`\355\272\275wp\300\275\255.\007\276{\315\312\275\277O\276\275c\232\262\274B\235\255\275\207\003\222\275\323@\211\275>\017\373=\274\213\231=X\030\032\276\236k\313=\333\203\372\273\213\222\031>\022\244\264<\210\375\360\273G\022 ;\201\245\026\276\003\267\013>q<\223\275\306\344\277<\321\364k\275\006q\362\275X\003\315\275\347\275:\274M\277\314\273\212\260z=I3\351=\351\212\231\275\254\"4\275\204\006t\274Y\237\351<\355\006\013\276\317\334\013;\213\316\325<\303\234J\275j\352^<\242\225\034\275%\366\320\275\231n\036\275o\201f<Q)\250=\216\266\340=@\263\331\275\261\256%=\376\255|\275\023 \321\275\356\315\023>l\n\353\275\317\373C=\326}\274=\217G\350=y\003\256\275\3721\336\275\316/a\276G\337H=&\301j=\346p$>\355e\032<\324\177\226>\354\367\234\273S\206\006\275\343\023 ><\375\210\273\273\177\226<\2560\336\275^\3740\275!N\016\274\271\220\227\274gS6=\223\2757\276\240\312\207\275\007\270\200=\304\033\006\274\227J\221\274\377\205\n>\364\363\311\275\037\265\340=\034\231z\2749&\367\275,\243\337;\030E\276<T=\017=\227\371t=i\254\214=\027\300\243:\222n\335=\367u\346\275F\371\216\275\360\024\252=\240v:<\322=\344\275\\:\235\274\254{\330=\304\216\262=\007\354\306=\267\177R\276\211+\205\275\313KG\274\233uL\275(6u<\002m\237=\3060d\275\014\303\270<$\033\207\274\210p\200\275\352G\032\275\0232\305<S\250\014\276\341A\003\275\276\0364\275.2\364\274\2764z=\\|\317\274\374\231\334\273\321r\262<W\377\037\276;m]\275,K\315\271J\254\245=Ak\226=O\\`\276\374W\311<[\327m\275\245H}=\032\226\266<\332\234\224\275/8\t\276S\303\000\276\222b\307=m\022\\\275\373h\236\273d7\216<\013\2444=j58=\351f\237=\3778(\275r\203>>\nuX=\364M\273\275)\233\265=:\347c=c\262\007\272\340\016\203=+rz\275\362\305\335\275\214\236z<\350u\237<t\377\265\275\376a[=\372)\271\275o\354\355<+?\017\276\023\363 \275\362\374\273<\373\365^\275(h\035\276\277\363;>\'\223\375<\276I\256\275\361\000&=\001\005\220\275\212\310\247\275\035\332\005\275\224\353\374<\3544N\2765(\255\274\034\312\301\275\300\203\325<\213\255#\275\341\332$\275\014\343z\275\267\367\232==\370\237=\323\333\353;\225\227/>\272\000\330\275\2626\207\275\306 \266\275\016\rB=\035\2103\275\367F4\275\027\212\020>`\2131\276\000\362S>\330\317\353=\341\252\222\274\347\371\365<\210L$=4,\317\275\304\270\222\275\212\236\275\275-\365*>\224\001\322<\373g\214\275\306\361V\275\322\254N>\210M3=X\201\255<t\300\037\276\240\310\003\275/\246k=%\026\004>U\031\334\274\241\306\312=(N\257<\253+\2469<)\244<\320V,=D\024\231\275Z\355\235\275\353\002\306=\262z)\275\035?\241\275.\331(\275ra*=\030\246\002\276`V\375<\257d\246=\275SZ\276\221w5\275\245\260H<|\036y\276^\016\002\276\254\004\206<I\333a=.\014\325\275\202\312\225\275\341\\\324=\300tk\275\033\003\010\274K,\214\275S\234Z\272\372g3\276Qs\202\273z\356\027\275\017\205\016<\017mm=\255\263\203=EW\202\274\232\212\210\275\007\260\355=\335\206\233\275\244\026]=\214\002\014\2757(\024>j\225\\\275\353\276\240=&\246D<\323\037/\276qtB=\315\361\\\274\203\260\214<_\007\347<\200lk\274\276\005\232\274\\\"\375\275\177\"\372\274\216\0318\275\034\261\231\275`\202x=5(\342<\"@H\275\312\251?\275\337\2677\274G*\351\274;\206\276\275\254d9\275\273\003_\275Q\306?\275\022\3608\276\000\021\257\274Y\346T=\026\226D\275#n\001>%5\241<.)==\006\354b=\235\023\027=D\2434=\277\231\n;}\322\205\274AXu\275\331H)\276v\n)>\025*\243=P\013\372=\225\332\313=\346b\337<\317\330\224\275C\252)<\241\242\276\275&\256\210\275\207QI\276\246M\246\275\270\013^>y\320\355\274\377\223\006=kd\236<\335z\261\275\014\241\301\275YK\210\276\\|I<zn0\273Y\202\317=F\350C\275\035\021\203\275l\241\024=qI\210=<=\356=\306\372*>x\275\002>\271\205@\275y@\034\275\304\303\361=\257Q\035\276\001\347\321=J\335\016\275\300\365\224<-\247{=a\316\\\274j{\021=C\304\020\274\316\267\303=\244Y\r=i\363\244\275#,\304<6\376#\275\271B\220=\2073@=\364\336$\276\366\203_=\271E \276\035\335\034>>D\251=:G\013=1@\r=\024)\262=a\371\244\275Q\003o\274M\336\357\274x}$\2744\377\372\275\311\363\262\275\000\246\214\274\343\227\267=\200D\207<\003S\274=\266\r\3529\257\216V\274\273\330H\276\206\004Y\275\331H\203\272+)\305\275(\217\272={\347n=\2228\021=(\2465\273\343D\230\274E\356\213<\345\354\024<[\367\257\275\366L\013>\317\200+=`\007\316=m\343\332<\250\373\031\275t\2150>\221\356\344\275\335\314\020\276\033\322U=y\030\227=\220\305Q\275[\277\210=~\363\023>ur9\275g\026f\275\257\224\357<7d]\274+C\256\275\200<\333;\240\247S\275\306-\r\276]_\016\275\030e\203\275\202zO\276\007\233\027\274\245\326\224=4\354\261\275\274+\223\275\323\001\373\274\262PB\275\266b\242\275pK\227<\373\365\253=\030\\i\275\325\023\237=\033\010\003\2768\362\031\275x\023\244=\257\334/\275I~\r=0UL\276\036V\301=E$79\315!m=\331\235m\275\360R,\275\007\272\206=\016\2609>vy\020\275\030K\232\274\371\016\206\275\330^@>\2459P>\325\267q<\277\2740=\245\335*>D\270\305\275\304\331\016>\242\036\'>h\276v\275TYs\275\302\027\\=XK\240\275\3301\313=\231\252\014>\301\346\235<\304l\006=\201\356\035\275\247\341\202=\200q\222\275\001n\030\276\003\351\002\276\222\376^\275\350\332\t\276\014@6>\256`\245\275\315\017\267\273\2156h<;\230\216=\370F2\274\n\220D=w\034\324\274\257\036v=\010\243\000\275,%\254\275\317/Z=\312\007D=cDO>\266gI=\204\027\362\275\010\314\260\275\317\000\214\274~\266h=f*I\274\235\332\005\276i1\027\276\312\270)<\371n\316\275\357h\232\274\370\326\026>\342\331\205\275+\305\202=\211b8=o\335l=mc\024=;\272\246=\177\333\214\274F8*\274\222\242\234\273Nw\252\275~\274\372\274\274\035\374\275\321\034)=\354\300\204;|\300\036=*0\366=\362\025\262=\304\232\237:\337`.=\'?\271=\364\370Z=8\347:>\363r\302\275\343\203\330<6b\262;\013>+<\322\225i\2757B\010<\003\306\213\275_@\247\275@X\006>i\330(\276\001\365\223\275\351\301\354;l=\216=\20052\275\231v\017=\323\235\013>B\343\325<n8\242<\373\246U=n \027=\351\213G8B\322\276\275\'\233\242\274\362\272\225=\316f\333\274\341l\253\275\355+\362\273\275_\272\273\216\263\327=\315\354\305<\301Q\037\275\266\277\010;!\2372>\'\007\360=\002\360\246\275\240\311\243=\027\263\013=3\210->.\227\203\275\035\003\305\275\'Y\351\273\032d\313=\032J\366\274\3333\226\275\330H\005>$F\230=\r\310@\275\007\014M\275\337EA\275\261\311D\275\265^\237\275\027\252\313;\002\2405>\233\023#>\234\246.;Fx\001\276z\014\375<&B\361=\243c\226\275?\'\304;\366`/\275\323hp\276\302\374\003<<\271\317=\rI\332=\221M\t\273\027\337y\2766\017\034\274\343\215e=\306\272g>$\272\034<\317X\007\276\024\223\223<\272\316~=\254\235J\276]j\037\276Z\362+<6\204\021>:<\212\273<%\267\272\336\322\223\2736\r\353=E\230}=\354c\354\275\000\341\244=\351j|\274{ \262<3\325\340\275\203|\203\275\322\224\231<\225\261\277<\374\202\036>\332Y\245;\314\252@\275\275\224\212=\301\250\001>y)m\275\271C\341=\014\313\242\274\355\350\314\275\006%\237\275g\204\231\274\270{\321=\007\371\025=\200g\302\274\345\226\222\274\353B\265=Q3\250\275\024\021^<%\016w\275D\255\332=\312`\020=\345\257\024>X\014\013>\216Nr=\212\313\263=?\272\372\273\251\302\334=\312\235\003\275\342\343S\275[\342\233\276.\203\346=\242\327\311\275\360\r\000\275y\013\242\275\352\373a<\247m?=\352\032\310=\322\030\213\275$jd\275i\252\031\275\261\2771\275N\033\003=\265\220\016\275\035\356\'\276y\020\371<\316\000\365=\215\034\031\276\261\372k\274\006\323\307\275\224q\024\276an)=\216\260\357\274\244hC\274!\002\213=!DV;3\245/>|\371\\\275K\273>>\275\367\031=\307\226V>\327\262\244=\360\236\224\275pV\241\275\276Sx=\370\250\231\275q\265\303\275\261\211\240\274\201\264\302\275N\373\200=)\250]=,v\361=\350\001\211=G\333\'\276\315\362\275\275\3543\014\276XG\262=\005\020\004\275\232\034\365\274\350W<=A\311\344\274\301q\200=\232\032\234=\3249\264\275\374\227\003=\306\026\203\276\027R\340=|\251\016\275\331\036p;$\360A\276\352\300<<\032\214E92\244\367\273\001#\277=\323\300\222\275r\350\177\275V7R=\3428\025;3\336\204\274\233\204\252\275\264\343(\275\235t\037\275\343m;=\222\237\'\276\337\221U=x\304\361\273\312\303\246=\227\271K\275\262\350\222<\262b\335\273\200D\323<U\224I=\304\000]\275L\300\225\273\034\363N\275\251M\256\274\333|<=\331\250\235\275\343\263\336=\325\313\244=\222\233E\276F\034\255\274KA[<\204H\372\275\034;\214=\306\267\022\276\236\tw\276[\300\364=\205\rq>\260.\374\275<\272&>\366\263&>\226\033\361<x\335&\2754\347\017=\244]\304=P\231\034\274\203\360\216;\220\370\002<F\320\354\271\207\021\335=\024\016\216\275\271\242\030\275\223x\010>G<\217=ZS\336\275\245\344\313\275P\310\254=Zz\303=!\250\214<9\276/=\340a\354\275\236Mb=\232v7\275\353WA=\304z\345\275\303\332\t\275\344\010\014\273\263\255\312\275/\220\365<\320\236>=-a\355=\371Q\236=\347x#<\343\331-=\313\370\030\274a.<\274\223\230w<P>\310\274\322\274\240;G\243%\274\002^p\274\n~\327=\241\324\315\275\316\022\224\274\377FQ\275\253<\017=\211\344 =\352\310\326=\201?@\274E\300\263;\347\233\004=\370Q\263\274\340\220\372\273\215\250\324\275N\325\032\276\016\354\230\274\244\264\260\274\\\254\244\275\202|\274\275\025S\276\275S6\275;\272\272\024<ju\r\274\207r\352\275\235{R<\367\224V<\304\017\027\274\202\266\223\275\327T\263<\261|:\275m\303\247<\267#a\276\363e[\276\252c\013\276\337\245\304=*\353\\\275\277\215\016\276\227\247\346<o\266\236=\264\007\027\275\022/\035\273=\235\037>\327\273\245=#\345\'>.\025\233\275\306\215\352\275y8\203=\254$\021<\214\016\344=\375\235\230\275\254x\241=\214\026\377\275X\017\363\273\224wX\276\245\307\264=\275\000\r>\362\234\256\275\222O\314\275oU\206=;\252E=\017\361u\275\202V\357=\t\272\340\275\220\324V\274\014\340\005>\023\340\002\275s\263\336\274\020\235\306=\'\3132\275\202Hq\274o7\010\275\273\020\247\275\244>\216\275,(\327\274]\302\333<\221\225N\274Y\354\023=YX\r>\207\3178>\253:\220\274b\0055<e\346\346<}0\246\2759i\252=\007^\257<a\266\240\275\036n9=D\341d=\227\225\362=\351\200I\275\003~\243<< )<\252C\204\275\301D\267=\334\322\303<\266+\010>\321M\213=,\363b<\'\233W>9\025\274\275\303\211\246<B\325\201\275.\307\227=\200\230P=H\246\263\275j\252\340\274V/X\273*\220\261\275c\310\244\275\374\210\317<\030\351&\276f\"q=O\232\226=\312c\026\275\031H\326<g\2514\274\334m\226\274\317\317\350\274\212NI\275\035K\026\276\375\352M=\377i\003\276%\365\236\274\rM\370<g\354\314\274\307b\207<\264\356z\275\206C\244\275\250a\001>\'^\252=\013\207\235\275\035&\215<f\262\003\276\265\021 >\262\r\267\271\350T{\275\222J1>\270%.\274\031\370\200=_\277^\276;gI\276\025\323\010>\037\365\255\273`Lv\274\311\212n\275\255\257\214\275\336\206\223;\311C\205\273\253\023\036\275>\022]\275\206-\366=9\313\315\275\035b\221=\201\374\267\273\000\246\341\272n\216\270=l3\241={\321\214\275\035\324\335\2751\003\016=E\202\357=;\273i=\201]\335=\033\264\302\275\3174\013>^(C>\322=\223=\251\035o\275\202$\264=\2632+\273\326!\030=q\216\313<4*\036<\323\261\r\275\201,\365\275\347W\370\275M\005\344\274\033\361p<\276\021\026>}\t2= d\033=\021\014)\276\002\260\320=\010z\303\275\227\"|\275\023\272%=\250\220\030=\235\026\037\274:\221\251\273\305\372\201=\323W\271\275\033d\226\274\232\351z\274\362\350\330=\272\374U>\303\370\247<\263K\227<\224\347\257;\000}\236<\022\2208>\030\330\344<[\332c\276\004\'A<\037a\354=\331\311\001>\021\254\272=\347\267\216=\316\007x<*\222G\276^\211h\275\220D\034<G\320\207\275\005\032\267\274\030\260=\275\204\377f\275\226\307\333\275pI\037\275g\245K\275\301\025\255\275TK\273<T\271\007>\177\"\013\276o@\033\275\205jQ=,\014\n>\257\263\t\275\023\335\306=\275\303\253=\345\252\206\274\276\363\355=O\300\204>\027\307\311\2753\375\246<\325:\221=\312R\314\273k\307\200\275\327/\311=\r\312\365\275\031d\266<\033,&=\205\341\215<\207 a=\325Wo\274da\253;\244\000\024=\266\004\017=\3564p>\307x\236=\217\332M\275\247E\270=K\340%<37\257=\273g\310\275\006\265\346<lq\013\275i1\306=\010\271\326\275[M\267<\251]\032\274\256\230\366<\327Y:\275:\207\200\2751\034\326\275E\207r\274\237+\n\274\2408\t>\312\252G=\3548\356\275\375gi\275<\264\221=\375&S<;\207*\275\036s\032\274fD\313=zoB\275Q\345\306\275\316\007\354=\267s\001\275\025\"\037>d\351+\274\216\007\254=Q\346\241\275-d[=\203y\246\275\230\ny=?\324X\276\234A\314\275\264\274\252\273\307\032\373<kd\365\275\032\252\260=\344zY<\243\216p\2732\326\357\275\007jA\276\017\030H\276\273QG\275\225t\241=\367u\267\275\034\314\213\274KP\231=\224\313\317<\213\256>>\027\234\353\274\274>\346;\332\210\335\275o\003]\275OOW\276v\\\367;\216W\036>\346\021\254\275\270\0222<\021\0138\275\270J\230=\374\254\034>\266\305\232\275\260\364\327=\344\223\255<\273\352\275\2757u\027>\354\025\205=z\372\265\275.\030\253=\257}\312\275`\3351\275\024\317\275\275(|\266\275\010\234v=x\220\315\273\360h\327\275\330\227\235\275]\206\223=\3322\231=ZS\245\275)V`\275\305OG=$,\332\2752\264\007> n\313\274\252H\210\275p\250W=\000\370\263=b3\240\274\036\236\231\275W\234\017\276yM\332<j\033\004\275\345+@\276\304\177\247\275\344k\230\275\306\226\236\272\262;E\273|\"M=;\375\255=$\327\301\275\261\014\215:\024\235\320\274\356B\204\275[;\\\2738\">>\325:U\275\021\327\002<zJx\275\200@n<\013\321\030=\261k\234=\247\345)\276sX\003>\270\355|\275\005\310\022>\253\312R<\347\207)\275\265\333\206=\356\341\"\276\032\336*<\346\021\007\274\326Y$=\204\376\357;\366\224\237\275t$\211\275\312\033\202\275\350\3604>\313\204d<w\021\231\275\265\311\266=xAu>W\003\023>\204#\002\276\'\020\200=\247\342\010=o\321J\275\372\025\220\275\247\3445=\363\303v<U!c\275\026\266\362<\256\n\370\275\336\240\002>\210\007h<\250t\263=\225f\020\276\341g]\274\316\250\340\274{f\225\275{5+>;qr\274\335\006\274\275\326;\014=R*\262=@\255\212\2759*\354=\306\014!\275\023@2\276\274{\352<E\222\254\275\005^\225=\'\010\346\273\370\025\275<5\351v\275b\206Z>2\327>\276\376\237\310<s\327\367\275#\367\225=\355z\200\272\265|\004\275\207\205d;\377\312E\275T\343\215=\334O\327\275\311\340\271\274\022E\346=<\2529=\237\210J\275\221\237\257\275)\256C\275/\206\026\276t\235J\274\2007\235=\003\343\311<|\026\023\274.hl\274\206\035\236\275\276\230\235\274\315\251\005\275\360Bv\275K\272\241\274,\341\003>\330\275\336\274\327\271T=2t\307\275\373n\033>>\'x\275-\355&<3\270R\276\206VY>J{\253;\215\036\226=\204=\210=\225\2150\275\013\370\245<p\010\267=\177\346`;[\310\200<\303\205\006\276q\202\222=\360\367\201<\007\255\213\275\330b?\275+D\307\275\301]\005\275M\374K\276\277x\306\274`7\226=\000I\341<\312!\207=I\273\246\275x\352\201=\r\374\200\274\310\346L>\356\303\252\275\200\236\371=M\031\177=\271\007q<\363G0\2732\305\260\275\215 \345=\014\212\271\275\357\254\360\27454\210\275[\235:\275\371\212\375\274\372\n\352=\020)\204\275\003\210x=\2062\300\275\251~\243=\016\242\215<?\207\264\275\243\347w\275j\334b\275\004AT>n\303[<\352T\224\275#&\227=\033\304\003>\200\304\001>\325\327\211\275H\004\205<\350\"\371\273b\323\036\276\215K4\275oP\242\2737\177\361=cm\342\274a\360\027\273.\333\215\275U\370+\275\366\205@>M\2470\274\n\006&=\215\'7;\232j\317<\002\017\230=I\216\335=\2171z\275`s\320=-3\316\275\221P\244\275\321\246+=\006[\216=w\013\273\275\222\300;=\273\244\224\275\341\257\017\276\272\3613\274\241\361\016\274\361^\022>\270\303\027\273\336<\376=*\366X\275M\355\250\273\003]\271\275J\3568\275\246\300\232\274Qd!\274\235\021h<\217\202\221=<\243u\276EL\025\275\224\277\365\274\0327\226=\252\236\321=Z\261\006>n\370\201\275\241\270\025=\031\026\010\276\327\274\017\275^w\274=\r\017\001\274\242|\016\276\316\rz=G\272\022\276m1\272=cv\036\276\265\000\375\275z\267\251=\022\tC=\314\220\271:Z\013$\275+\262\021:?\034Z\275\036\366\010\276@\231\215=\375Y\217\274w\021\307\274T}\205=\302\354O=\245Qc>`I\304=_\257\310:\200\017\274=\246\302\021\275\276\220m\275\326:\251=\004\000\300\275\221\252\251;LT&>\275>\247\275\241\321\203\275\026\300\033\276&\271\035>\274C\305=\226\013=\275\203\363\317\275y\037\327\275-R0\2761\201\331\274\277(2=\023\342\261<\250\346x<\275\031I=@!r\275>N\343=\010\230\177\273\320\034\275<t\360n>\026|,=^\225\225\275\316\335\365:\276]\222\275\263B\335=q\326\354\275\366\225`=\337}\323\273\342\262b=\017jO=1\017\301=\325\204\226\275\252\331\023<\006G$>\377\260>\276\037\264\252=\302\003\025<\002\260\021>9f\031\276\227\341\003\275\231Wd=\301x\002=\310\376\t\276\035\001\265<\326I\347\274i<\033\276?\343h\274\273\013\201>\2315\n;\217\377\\;\236U\257=G\350L\275\226\244M\275/\350\027<z\207\246\275\363J\316=\340\247\342\275\342\220\360\274\031\372\017=\032A4\275\372\031&\275W\255\212<?\227\005\276d\227\225=tH\337<>e\t>\373K\277=\317l+=\377\022?;s\374\207=\253 \331\275E\322\325\275C\3601>&\237\263=\276^/=\317\274V=\203\037\365\275\314]\027=\"\022\366\275\210\262\220=!\201\020=\tD\243\2758\264\304=\r\342\016\275\234@L=\372\301\311=\255\373\007\276\023M\376<\224\240\366=\225\202\003\276\303\200\357;,3T\275\357\220\n\275\200u\371<\022\271\304\275\024o\321\275\344\252\316<dX\r\276\311\025\210\275b\313-=~\243{<w\037\211=\213h\350=8\033==8.\237\275d\333j>+\3238\276\264\356k\274\373p\006\276\355n\264\275\016\312l\2731\t\214\275\361\362W\2754\266x=\241/\001>\233\302\006\275\226\320\203\275\036\254\230\275|o\231\274\365<\202\275<\210\216\273\314\1770\275\251\027\'\275\366\270\234\273\212\315\207\275\\4\263\275\nSM\2752\224G>+\303\363\273\375?\316<<\345\016>\215\327E\274\203\376\320\273\244\325\233\274\250\231\272\275\317Vs=r\227\000\275\272\277\033\2764K`=\341D\036>zY2=\360\216\207=\006\203\225<t\2225<\354w\220\274\214\216\013<y\321\236=\333\254\302\275\225\201S=\024\340+=\266\311\240=J\004Q\276\026\331\226<\262\333\253\275\363\201\321=\327\007\322<+\023\371\275\251\357\030\274\017F\023=w\245\301=\253C\254\275\312\376\320<-\322\312\275\212,\237\275H\020\016>\300\250A=\324T\237=\366\225\272=\035\004\367<\236\2045>\333\0241=\351\274 \276V\013`=\351\263\347\274\nv\216\273\r\246\005\276\215H\325\274\313\254\345\275.(\255\275\263O\337\275\270\200p\2752\257%>\310\355\236\274\206.\372\274\343\303\254=\224J\346=\305\352\021\276\234\310M<\324W3\275\254\220+\274\340\\\006=\253\035\375=q\r\026\2762\302\244=z\302\235\275\347Q\277\275\240c\277=9\342\362\274\021\257\214=<\254\000\276\310\344\234\275p\244\025\276\204\351\352=\335q;\276\276l|;`\0074<`\247\201\274\2328\374=\350\335\305<\325\251S=y\216:\275\303\020^<\037Z\244<\235\366\020>\0146\233\2743\262\366\275l\272\026<\004\265+<\311\227\200\275\253\370\364\273\036D2\275;\007O<\266-\305=_C\007>\2342\377\274\275d\221\275\004\224/>\273w\265<)\371\205\275K\210:\275\327.\030=\357^\\<\373\002\247<Q\317<>\271\020\"=|\020%>B\331\233\274\366\370\014>\006\357\033\276SRy=6\247\223\275\014\371\304<m\0222>S\363\356\275F\003\376:t\010\235;\257F,\274%\277\222=\366@)>\265D\223<\222v/=\204g\245\275_\240\010>42\247<Kx\013>\211\267\032>\033\234\223\275\225\342\201<7\333\360\275\'mw\274b\334\037<\005\264L\274\036 \311\273&\340:>Q\357\232\274BaD=0\002\265\274\242?M\275\320\347\307\275dKR\274\344\314\333<\221\355d\275\253\025^\273\366\301\263\275\375\3474>QF\363<*>\033=\214\352d\274Mu\217\274\177\246\352\275\370(\260\275\352\331\356=\t\2502=\316\273\t=4P\367=\035\366\257\274\257\031\202\274Z\304\205\275,\000\010>\201\254\001=A\3219\275\225\377m<\240\017\003\276\025\356\307\275\362\013\245\275B\035\305=T(\217=\361\370\007\275\306\240h=\210\336\244\274\316\005\313\275\024\031W=\327\262\351<FTa=\350s\301\275jJ\227=\244\2479=4\210\370\274\272FR>7\3004<c\240\024=.^`\273\333[$<\324j\355<\2524\027\276MJ[\275f\233\235<A\204\242\275<\361\301\274\320\310\313=\254B\273\274\223\212=\275\277\3510\276Z\326\016>QN\310\275\030f\037>\033p\372\274\310\346\010\276\260\013C\275\002\251p\275\035\333\204:\320\301\034\275\323\253f\275R\270*\276\324\020\021\276\000\270\347=\355\346L>\264l\351<\203\345\262\275\333\257\007=\361\371\220=K\334\360\274>\327\340;\333\347k<S\212\224\275\035M\344<\022\366\263<\357X\303;@\226\336=\336\347W\275{\353\340\274\013\322\017\276\037\204\017=\030pw=\000N\306\275xs\303<\0064\200\274\345\323\240\275Y\367\230<\213g\221=@\325\276\275\340\341\226=\203\350\006>&\276r\275Hz\231=\355\236\332\275\376\236\344<w\231\314\274D\035\374<\333\260\t\276\370z\n>\305\277\016;\035kV>h\232\037\276g\343\\=\365IH> \225\273<\275\360{\275\2742-=\213\\\266\275\267\240\037>\'1\354\275\267m\257=\366\204\336\275\255\333\255\275\311F3=u\362\033>\037\326f>#`d\275\025\360\016\274\345\210\032<\367\243+\273\tC\021\276:\"\224\2752j)\275,\304\252\275\256\331\221=\232\320\365\275\332\327\342<\\\264M>\0339@=\335\327\345\275\036\247\370=\274\331_<;\t(\273\232\360a\275\244\310&>\t\020\207<\330\267*<\302`\331<\342\354\212\275\035\344\320\275\210\250I=\240H\307\275\330\332\231=\010\236\364=\256\372;\275m\272\322\274\022\221\027=\013L;=\354\343\342=\335\2269;\347 /\275kP\340\275\201\356!\275-y\340=2\337\304\274\307\t\211<\377\222$\2764\376\251<\326:\311\274\361\3616=X\221\212\275\270\207\370\274\270\275\204=b8\037\276\013\034\213<\234e.\276l\240\247\275N\313\t\276\333J\322<\372!H=\2005\022\275\356\017\003\275\211U\235\2759\013P=/\206o=IL\366=\021\225\367\274\250\275\265\275\022\213\263\275}*\210\274\364A\303\275\374\006\200=\211 )>\016\317\362=\204\3660;\032\237\376;\347\325\331\275\254>;=\375\233\236>o\242\307<pg\275=R\006(\275^\330\"=p\000\300=a@\221\275K\344\330=\335\211\335\275\313]\340<4\212)=\334\352\347<k\030\361=7|\026\276\343\3177<\326\004\201=y\016J\276\2236\3659 \247\017\276A\275`;\221\264\005\276\2606\340=\356\336\216\274\301_\361\273T4\314=i \"\275\343/\020\274\234\221\022\275\377n\217\275\203\343\321=\362\251)\275\246>\266\275x\216\220\274V\313\312=EN#\276\034\245\337\275\003\202N=\010\177\034>)hH\275qU?\276\215W\206=1 S\275o\236;=M\023H\275\217 ~\275\253\362S\275\256n\245=\221gp\275\347\360\372\274\301x\242=n\216\241\275\343$\207\274,\0379\273d+\266;rO,=\014w\372=\3157>\276W:\340<Qfe>\215\344->\"\277\312\275\251\353V=\251O\r\275\336\335\022>\361\023\340\275,\310\206=\301w\212=\"\007\276=\240\232!\276/}\326\273\253+\215\275Q\332\333\274Z2\312=\314\220L\275\022\232\375\275\303\253\236\275\204\351\262=eU-\275\270\003C>\'\353&\274P\257\256\275\244\251\336=\226\246!\276\327 \205=]m\210\275\203\016{\2750\014\230\275\223\005\260=$\213\211=#\301\365<\002\331\006=\365\2316\275R\243\373=\214*\254\274\235i\253\275m\020\002\275\r\246.\275\026{\340=\375q\212\275H\367\020\275\373\371\221=\013\361H>)\253@=V\346\317=\364\263\317<\re\337\274\216\276y\275\377{\256\275\373\332\215<z\377\005\276&\251G>\276:\363=Oa\032=\234K;=\023\266\367<\355\'\260=+\251=>^\276y\274\223\231L\274\227\276\325\275$\223\270;/\024\367=\005\215j=c\372\306=\371\037\355\274\204\352\r>z\207\272<\"m6\275\226\233L<\3658\336<l\036\022\275UQ0<\234\357\237=]\244\266=_]\321\275\326:\005\275\033\310\366<\254\267\227=S\2545\274\0161\270<\303q\003>_\247A\272\205\272\226=G\344\351=\270\276\214\275\370\323\327<\t\213\353=Q\332\360\274\244\343C\2728\010\257=\201\"j\275u\272`<A\022\364<o\204X=\352!,>\307U\215\274\264^\357=\022@\254\274\320\354\005<e`+\275\242\355z\275Lb\005\274\014\020\220\275\325jF=\244\267\330\275l\244\210\275P\253?=\025[\343\275j\237\232:Q\004\267=\307\273B\2753e\030\276\267\224\250\275\317\236\307\275\340\006\320=\237\241f=v\200\273=\255;\203\276\267X\2669r\367\031\275\001\271\376\275d\270%=\030\266\231\275\373\212\252=`~\001>\t$\272\275\243\301\224>+8\303=\002\020\211=\371\254\200=\237}h\275\317\236\204\275S\212\346\273\313&\213\274\322\225\026\275=<\034\275\204\236\216\275\022\241\317\274\363\252\244=\353\303\026\276\343G(\275X}v\275\363\344\346<,\201v=4_N>\256W\030=\310\317}= \355\035>\320\016G\275-\370\263=\022\226\224=H\334\246<ZU\222<4UI\274\305\325t>\264A\036=\341w2\276\342\306w\275\026h\t>J\344\331=.\327\024=\025Q\230\272\345\020\223\275D0~\275\226\010\270=\311\253\005\275\347\000\372\274X\204<=n\022#\275\322\nz<\271\347 \276zRG=gE!\276\003\376n\275T\020\217=\262\373B\275\3621\003;\276-2>C\237n\275\200YH\276\301\004\253\274\2134\t>D\374\000\276\t\014\224\275)C\277=ga\017=\250\224\222=\350\2512=\334\n\006>\213\254\272=\350b\211\275\014_\245\273\356\253\273<\037Au\275\004\237\243=\001\020\226\275m?\n=\236\266\r\275\\+T\275\313\020A=\010\351\273=\007z!\274a\346\327<\341\231\002=\252\007\261\275\316\211\306=\251\203\250<j\017#>7\350\272=\356\035W=\000T\013<+\022\023\275\201\317\213\276\036}\010\275P\210\326\275\027\014\025\275\323]\200=Uc\272\275\336c\323<\3019\261=\365q\202\275\203\261\222\274\275\242\202\275ug\014=\326\377}\275\337\262/=g\230\r\276L\332\022=u(\204\275\030\\l\275\313\0210\275 \323q=\032\342\330\275\022\201P=1%\356\275\010\312H\275q\261\277<\362\373-\275\026\210\333=\267#\254=\267\345o=\363R{\275\325\273\316<\ni\001=\003LP\275\356\0312\275\322\025\254=*\261\303\273\331lM>\261\347\271\275\203\377\310\274\3713\350=8\246\024=\307\007\334=\346\361\362\275\202\355\270<\274\305\202=8\003U\275{\003\006>\350\245\242<,\211\027=\225BC\274\342F\026\275Q\013\300=\340\245\220\273\212h\350\275q\272\251\2744\374\210;U\3511\275\332\341Y<\000I\240\275T\207\212<\354f\277\273<J\021\276\325\370\'\273\226O%;\264@\237=%H5>\002\203\t>\037t\245\275\375\371K\274\216\274\206\275\2360/<b\023\'\275\313#\004\276\222\017\312\273\344\366\345=\256y/>\0220\321=\265/\267\275V^\314=H\323\010>\353$\374\2755\274\261=\010\304\375\275\205Xd=\210%\347\274H\032\201=\304\221\002\275\326\023\270\275\220\314\014=\243_\t\273\232\r\370\275\260\026+>\022\004\234\274\014\240\030\275\r\273\000>\033\032\256\275z4P:}f\347\275:\004+>5\245\211=G\r\321\275s\225\226\275\177;\261\273\314ur<=(Z<\031\366\243=\274]\004>\265\377\243\275\361\252\206<\204\000\306=\262\373\201\275\255\347E=\037|B\275\331s\263=\321\336\035>\200\024s>\356\003=>\341\n\363=\311|D=i\364\353\275\177\2740\276\314\233\000=\225\375\223\274p]\213\274\200\027\255\274|\204&\275\t\267\000\276\345\207I<N\251\236:$x\260\275\322\344\334< \034\\\275\332\222\351=V\266(\275;\315\244<\315\343/\275&\302\213\275\203+F\275X\026\314\275\010\200\317\275U\022\353=\253\365\260\275}W\030\275s\266\036>\275Xv\274\330\"2=\254Y\235<\353\352\211\275\210\333u=\253pG>R\233\267<\'\331\331=\364pP\274&=\016>\005\"W>\177l-\276R\001\215=\375\227\001\276\354\272\"\274nJ\032;\334\3531\273\031OE\275\310d\373<\035\373\315:c\306\205<\207\245M<n+\262\273\033!\227=\001\354;=\006n\367=E}+\2758\263\301=\270X\340<\277!\375<\0219K>\003\315\"<w\377m\276\240\001\334=\220\322\377=\212(n<Q\020\333=\026\372\343\275\003o\217=2\354!\276;\245\373=\317\207=;@\232\235\275\213\310\271=1\217\027\275\241\342j\275\245\246+=]\016\320=\320=e\275H\316\276\275\342S\240=\243c\313\274\354EG\275\324\031\206=8\256\034>\220n\215\274\017\3148\275\343(L=\013\313\000={g\254\275y\256\257\274\203\025\017>\351\352,=%\261\221=\217\215\024=#1\r\276L\257$\276@y8\274O\306\260<a\316t=\003\361\312=yn\317\275\302\242\334=9\201\010>\220_Z=\350V\036\276\352u\222=0\024;>r\314%>)\210\026=yP\202<\037\312\216\275\303\036D\274\365w\013\276\253y \274\230\022Q\275,\361e\274\227\334\271\275@\367\017\275\332\214\211=\256\257\034=\334\271\205=\370\356!\275!\371%\275K\244n\275\024\327$<\027\321\031\275\274;\250\274\021\271(\274\033\320\377=\300\225\206<\344\210\251:fPQ>\214\277\375=\263\326\217<\234\336\252\275\227}\250\275\251\227%\276\346[B\2744\305->\32371=\212\221\210\275d\216\276\275#\227\346=>\266\310\274=\206j\275\306V\273\275\311Q\211\274\177\030\200\275\377\204\027=b\313\r>\312\005;>\267\347\267=\005\026\303\275\261\017)\275H\264 \275z\006[\2724\027,=\311\352h\274<\002\025\275\233\363\374<\177;9<bLV=\313\375\227\275G\2159=p\276\247=\013\205#\274K\323\235\275\265\300\270\274L\335E\274\270\'\224\275\013LV\2760\343\010\275\345+\377\274B\0272\276~\262\304=\266\237\313\273p\245\033>\356(\303<\256)\026>\277\356\313\274\360v\006=\303\266^\275\201\3654\275O\016\324\273\364\276\006\275\375h\002=\242\244.=\351p\325\275(\216\205<\216~\002=X\206\002=k\010M\275eXQ\2742=#\275d\377.\275\037\005\235<\235XR>}\276\202\275W\246\311<\333iz\275~?o>\347\231\377\275\342\233\321\275\360\001m=\347\002\232\275\325z\306\275\252k\003\275\205\026,\275\035<\352=\370\030\362\275j@\357=X\252\023=\333\351V\276g&\006\276\226Q\270\275f.\242\275\345vz\2739s\357\275\242,\206\272\032\265S\274\375\3442=b\205\346\275\235Vc\275\037M\211\274B\226\005\276\222\365d\275\224\372\364;\236>&=\305\204P\274P\362>\275\211\030:=$V\001<\235\353\304=\n\224==\315\026\316<\230S\215\272\205\347.\275r\275\260<4Nf>5\272\203\275\263+,=\360\254\003>\253\366y<B\355\226\276\314\234J=1\313\327\272\370\202\207;\353\231\370=\276\315.\2768\211\224\273\302\256>\275b\322\207;wQ\332=\'\005$=T\346\305\275\2621\246\275\361\364M=\340s\270\274\026\206\274<@J\220=\327\317S\275\030R\022\276K\245\277\273#*\030\276\031\341\252\274\245O\336=7\255)\275\305R\375\275\202\234\361<!\330\375:0\323\313\273\274jj=\361\254\261\274Y\243\016\276NEZ=\377\"@\2738xW=T\252$>\277!\'>\273d\341\274\355\"\007>k\323\243=\325\306J\274\016\254f\2755\004\343\27419:\276\204\376/\2758\234\354\272\r`\032>\363NF=lM\000\275\206\374\035;\306+\234=\002\201b=\017\206~<\373\321\365\275\361=#<\236\227#>K\036\377\275\267\317\013<\024\013\246=Z\217\n>)p/\275F\213\200<S\213\250\275\033\201\366\272d/\300\275\375\372\253\275\022N\006\276\321\236+\275X\360\272=\200\263\n>7|\370;O\322\222\275g\221.<&\233\305\275p:\314\275\375\267\270\275\230\207\277=\271\323\253\275\027q\016>\317$\341=\321lN<\177\275\227\275\243p\331\274\372\017\232\275\003\035\013>\2728\004\275w\230\312\275\014u\354\275\203\r\020<K\260\255=M\222o\274\265\"\t>v\030:\275\332\222\237<\027\265\034\272\375\277\243;04#>\312\273Q\275\312=\325\275\247\226\023>&\351\200\274\353\364e\275\266\274\030>\361\223A=\202\001@=\376\370\206=\325\022\274<lp\265<\213\300\027>1\025\365<\241\357G\275\022-\350=\025\177\024\275\364\354\201\275\225\327\207\276B\031\366<\215*o<\353\022\3109\317pF\275\223\241;\276\263\1778\275\336\351\273\275\271\"/>\345\364C\274\233\321\227=R\366\r\276:\300\037>\363\002x=|5\005=\021\353m=\315\334\376:\264\037\000\275c/]\275w\251\267=\215\246\302=G#7\275a!\210=\242\224\213\272\216\000\244<\232\244\226\273_\2217\275.\375\310\274[>:=\226\241\017\2752\232\330\274\347IL>\352*\232=\316\322\220\275?[\333=\276\337\333=Qc\000>\005\037\321\274\305ai>\3532w\275\215\243\036\276O\347\243=\266@W\275\243I\226=\220\376,\274\337=\3359[\376\257<\202\253\342<\304nv=\003,\315\272.\0276>\t]\006\276hZ:\274W)\";\344\340\212\275\020@\273\275\324i*\276O\263\207<4n\231=\271Pu\274\025\341h\275\211\367\014\276w\237\037\275\216u\225\275\264Vt=y\266O\275j\330\2139b\325\010>\317\253\237<\326`\032=[\205\261=\215\224\350\275)\244\236=LC#\275\330h\036\276\301\230\363\274\271\204\313=\345\025l\274\344\325<=b\307/\275\033)\000>c\211\234\275\335^\362=/\032\320\275\013\224\317\275\200O\312\274\'<\304;\216\027W<\233\331#=\307Dy\275\013I=>\222q\352=\005\3046\276^i\251=4\007\253\275\377\326\351\275%]Z\274\014\'\032<\307a\325=x\324\210\275\"d2>*\363\351=<\264\236<\227\nt\273G\344+\276+\366\260=h\361,=\350T\326\275\221\326\010=\206\362c=\272V\001\275\207\023B>\371d\"\276\275+\365=\202S\024>\366\305]\275\327\265_=\373]\037=x\370\017>b\363 \276\023:\302<Z\377f>\321\201\264\275)\023\272:\376OZ=\365\307\213\274\316M\254\2740\207\303\275\343\267\027\275b\223y=\030\2276\275\010\022M=\301\024\310\274\277\355v\275\037\307L=[\025\001>\3565\017>f\245\335\274\026y\341<z\231\261=[O\365=R\255\236=qm.=\236\233O\275\357\340\030>\371\2047\275\367\021%=\025\022\210=\215\202\213=\327\005\216\273\030\305\260\273\026Y6=\277u\304;\257}\004>$\312\305<_\331\333=\217w\222;\256\025<>\372\203\257<=8\246\275\323\346G=\013\326\035\275\177\245\334</,\006\275{\322\032=\371\037\033\276O\366\006\275I\232\242\2741\341\233\275\314t\261=G\346\301\274bd\260\275I,\355\275\363\001\021=,\217\234=\257\025\035>H\243\036<\324\324\211\275\024L\277\275\353\350+=\304B\024>\333\372$\276\226\213\264\275:*\334=RhA\274/\313\301<W\367+\276`\256\240\275\230\223P\275\322\004\260\275\243\237t;\013\010D\274.,4\275\317g$\274\013N@=n3\216=B\371\267\274\372B\254=\310\210b\275\252\351\024>\321\206\037=\n\204\314\273a\315\366:\244i\311=^+\202=\201\261\032\275\300\240I\276\322\026\207=v\335\314\275mc2=Bk\236\275\336\304\203=o\n\035<F\206A=\323K\253<\255\241\210\275?.\370;3\337\217<\311\221\215\2757D\026=\360\n\211<\0048\231\275\177T7>2\277L\275\362\007\212=\001\3271\276\266\274\033\276\214U\250<\031\353\213=\232\256\221\275\210\205\330\271\321)\030\275\037\332\353\274<\035\336=\027\212\360\274\rs0=\233f1>SUS\276\340\233\367:\212M\243\274b\037\252=\345\360\205\274(\313\220;\337J\346<Yp\236>\272\276\343\275$7^\275\305sj=\305\';;\\\353\035=c\276\236\275W\357\266<x\245l=>g-\276T\263\'\275b\275E\276\334\360\t\275\005\\\266=WH\267<m\002\373\275vX\320\275\377\370\245\275-\325\360=p\034\307=r\242\276\275\362%\354\275\022\330l=\302\001*>t\361\374=c[\031\275\330n1\275\\\276\215\274\301\245}\275aC\247=\240n\347;\2434]\275\262dK\275\303o\004\274\262\325\t>\234\251v\275\037\253\203=\2622G\275B\366G\276\216\355k=\\\223\373<\357\250X=2{\376\275\005L\003\2761\367\275<\205[\347=\226\357\025\275\245GV\274S\365\033\276WH2=\272\373\352<\207\021[\275\232\323\013\276\317g\013:\206T\037>\375\350\021>WJ\026=E\032I\275\266\2744\275\320\340\227<\003x\260\275\360]\202=]\\7\275^\003\317=\3245\250<\245\002\307\2750\000\354\275\004l\232;\260\004@\275B\003\321=\376\271*=\020`j=\332\247F<_:h\274\336\210\013\276\207\221\027\275\267$\310\275\351kV\276\177\353\212\275\320\366r\275>\236\230\274l\252\032\275\275\312\232\275OG\314=~\351\205<qg\271\274\350\2530\275\343\n\264\275\312\036\305=\350\257:=qce=\256\027\000>)\'D=\346\326\213=86\000=\311p\206=\013b\023<CY\211=W\217\204\273\272Dr=\037\036\346\275}4\377\275S1\023\275\033\344\207<\01607>\373E]=}dU=M\322.>\213\014\031=zD>=\215MQ\274Z\265\233=\000^\013\275aP\036\2768d^\275%S\245=\313\356\362\275j\244\023>\272\224<=R\373\316\275\340\320\034\274\312\276F;\362\276\016\274q\035\273=(X;\274h:Y=8\221\273\275\3342\027=\203\252H=\341\336\357\274\374\016\231=\244\336t<\245\351E\276l\252\306=8_\360<\225\'\354\275\202\350Z<\257Af=\206c\240=6mg=\224\002:\274\356\".\273\306g?\276]\373(\275\342\325\216\275\\\300@\276d\017\216;O\214\363<\311\252\031\275G\370G=\ny\340\275)\226\342=6\265\024\274Y\346\371\272yOd\275\300j\264\275y\346\340\275\241*\032>\242\273\263\273D\312\003\276\202>6>2\227\267=\333=\202=y\216\n=o\320\354=\276\n\204\276cky<\276w\031\275x.\345\274wg\357<\324\t\260\275\340\t\240\275e\301\236\275h\036\023\276\312\317\203=8!!\275m\227K<B\010\363\275\224(N\276\245`\275\275\254G+\276A\207\002=\344\273\363<\031\363H<B\230\202\275U\220 \276kj\207=a\003\216<\0065\357<\017+7\275\376;\332\275\356\214\344\273\220!P=\334\211\253=\314iD>[\222\'\275{\352\375<lV\216\275|\317:\275\001\311\255=\360./>e}\217<\215\364\002=\352#o\275QT\342;Gv\335=\027vH;\310\340z\274\314\373\334=\231|==_*\252;\323\037<\275L\230\204<\271\222\370\275\300\035\311=\367qj=7,\245;:\271\255\275\177D\347\274\321\370@\276`\376\215\275\013\212H<\0071\333\275"
      }
    }
  }
}
node {
  name: "LSTM_1/recurrent_kernel"
  op: "VariableV2"
  attr {
    key: "container"
    value {
      s: ""
    }
  }
  attr {
    key: "dtype"
    value {
      type: DT_FLOAT
    }
  }
  attr {
    key: "shape"
    value {
      shape {
        dim {
          size: 32
        }
        dim {
          size: 128
        }
      }
    }
  }
  attr {
    key: "shared_name"
    value {
      s: ""
    }
  }
}
node {
  name: "LSTM_1/recurrent_kernel/Assign"
  op: "Assign"
  input: "LSTM_1/recurrent_kernel"
  input: "LSTM_1/recurrent_kernel/initial_value"
  attr {
    key: "T"
    value {
      type: DT_FLOAT
    }
  }
  attr {
    key: "_class"
    value {
      list {
        s: "loc:@LSTM_1/recurrent_kernel"
      }
    }
  }
  attr {
    key: "use_locking"
    value {
      b: true
    }
  }
  attr {
    key: "validate_shape"
    value {
      b: true
    }
  }
}
node {
  name: "LSTM_1/recurrent_kernel/read"
  op: "Identity"
  input: "LSTM_1/recurrent_kernel"
  attr {
    key: "T"
    value {
      type: DT_FLOAT
    }
  }
  attr {
    key: "_class"
    value {
      list {
        s: "loc:@LSTM_1/recurrent_kernel"
      }
    }
  }
}
node {
  name: "LSTM_1/weight_regularizer_1/Square"
  op: "Square"
  input: "LSTM_1/recurrent_kernel/read"
  attr {
    key: "T"
    value {
      type: DT_FLOAT
    }
  }
}
node {
  name: "LSTM_1/weight_regularizer_1/mul/x"
  op: "Const"
  attr {
    key: "dtype"
    value {
      type: DT_FLOAT
    }
  }
  attr {
    key: "value"
    value {
      tensor {
        dtype: DT_FLOAT
        tensor_shape {
        }
        float_val: 9.999999974752427e-07
      }
    }
  }
}
node {
  name: "LSTM_1/weight_regularizer_1/mul"
  op: "Mul"
  input: "LSTM_1/weight_regularizer_1/mul/x"
  input: "LSTM_1/weight_regularizer_1/Square"
  attr {
    key: "T"
    value {
      type: DT_FLOAT
    }
  }
}
node {
  name: "LSTM_1/weight_regularizer_1/Const"
  op: "Const"
  attr {
    key: "dtype"
    value {
      type: DT_INT32
    }
  }
  attr {
    key: "value"
    value {
      tensor {
        dtype: DT_INT32
        tensor_shape {
          dim {
            size: 2
          }
        }
        tensor_content: "\000\000\000\000\001\000\000\000"
      }
    }
  }
}
node {
  name: "LSTM_1/weight_regularizer_1/Sum"
  op: "Sum"
  input: "LSTM_1/weight_regularizer_1/mul"
  input: "LSTM_1/weight_regularizer_1/Const"
  attr {
    key: "T"
    value {
      type: DT_FLOAT
    }
  }
  attr {
    key: "Tidx"
    value {
      type: DT_INT32
    }
  }
  attr {
    key: "keep_dims"
    value {
      b: false
    }
  }
}
node {
  name: "LSTM_1/weight_regularizer_1/add/x"
  op: "Const"
  attr {
    key: "dtype"
    value {
      type: DT_FLOAT
    }
  }
  attr {
    key: "value"
    value {
      tensor {
        dtype: DT_FLOAT
        tensor_shape {
        }
        float_val: 0.0
      }
    }
  }
}
node {
  name: "LSTM_1/weight_regularizer_1/add"
  op: "Add"
  input: "LSTM_1/weight_regularizer_1/add/x"
  input: "LSTM_1/weight_regularizer_1/Sum"
  attr {
    key: "T"
    value {
      type: DT_FLOAT
    }
  }
}
node {
  name: "LSTM_1/Const"
  op: "Const"
  attr {
    key: "dtype"
    value {
      type: DT_FLOAT
    }
  }
  attr {
    key: "value"
    value {
      tensor {
        dtype: DT_FLOAT
        tensor_shape {
          dim {
            size: 32
          }
        }
        float_val: 0.0
      }
    }
  }
}
node {
  name: "LSTM_1/Const_1"
  op: "Const"
  attr {
    key: "dtype"
    value {
      type: DT_FLOAT
    }
  }
  attr {
    key: "value"
    value {
      tensor {
        dtype: DT_FLOAT
        tensor_shape {
          dim {
            size: 32
          }
        }
        float_val: 1.0
      }
    }
  }
}
node {
  name: "LSTM_1/Const_2"
  op: "Const"
  attr {
    key: "dtype"
    value {
      type: DT_FLOAT
    }
  }
  attr {
    key: "value"
    value {
      tensor {
        dtype: DT_FLOAT
        tensor_shape {
          dim {
            size: 64
          }
        }
        float_val: 0.0
      }
    }
  }
}
node {
  name: "LSTM_1/concat/axis"
  op: "Const"
  attr {
    key: "dtype"
    value {
      type: DT_INT32
    }
  }
  attr {
    key: "value"
    value {
      tensor {
        dtype: DT_INT32
        tensor_shape {
        }
        int_val: 0
      }
    }
  }
}
node {
  name: "LSTM_1/concat"
  op: "ConcatV2"
  input: "LSTM_1/Const"
  input: "LSTM_1/Const_1"
  input: "LSTM_1/Const_2"
  input: "LSTM_1/concat/axis"
  attr {
    key: "N"
    value {
      i: 3
    }
  }
  attr {
    key: "T"
    value {
      type: DT_FLOAT
    }
  }
  attr {
    key: "Tidx"
    value {
      type: DT_INT32
    }
  }
}
node {
  name: "LSTM_1/bias"
  op: "VariableV2"
  attr {
    key: "container"
    value {
      s: ""
    }
  }
  attr {
    key: "dtype"
    value {
      type: DT_FLOAT
    }
  }
  attr {
    key: "shape"
    value {
      shape {
        dim {
          size: 128
        }
      }
    }
  }
  attr {
    key: "shared_name"
    value {
      s: ""
    }
  }
}
node {
  name: "LSTM_1/bias/Assign"
  op: "Assign"
  input: "LSTM_1/bias"
  input: "LSTM_1/concat"
  attr {
    key: "T"
    value {
      type: DT_FLOAT
    }
  }
  attr {
    key: "_class"
    value {
      list {
        s: "loc:@LSTM_1/bias"
      }
    }
  }
  attr {
    key: "use_locking"
    value {
      b: true
    }
  }
  attr {
    key: "validate_shape"
    value {
      b: true
    }
  }
}
node {
  name: "LSTM_1/bias/read"
  op: "Identity"
  input: "LSTM_1/bias"
  attr {
    key: "T"
    value {
      type: DT_FLOAT
    }
  }
  attr {
    key: "_class"
    value {
      list {
        s: "loc:@LSTM_1/bias"
      }
    }
  }
}
node {
  name: "LSTM_1/weight_regularizer_2/Square"
  op: "Square"
  input: "LSTM_1/bias/read"
  attr {
    key: "T"
    value {
      type: DT_FLOAT
    }
  }
}
node {
  name: "LSTM_1/weight_regularizer_2/mul/x"
  op: "Const"
  attr {
    key: "dtype"
    value {
      type: DT_FLOAT
    }
  }
  attr {
    key: "value"
    value {
      tensor {
        dtype: DT_FLOAT
        tensor_shape {
        }
        float_val: 9.999999974752427e-07
      }
    }
  }
}
node {
  name: "LSTM_1/weight_regularizer_2/mul"
  op: "Mul"
  input: "LSTM_1/weight_regularizer_2/mul/x"
  input: "LSTM_1/weight_regularizer_2/Square"
  attr {
    key: "T"
    value {
      type: DT_FLOAT
    }
  }
}
node {
  name: "LSTM_1/weight_regularizer_2/Const"
  op: "Const"
  attr {
    key: "dtype"
    value {
      type: DT_INT32
    }
  }
  attr {
    key: "value"
    value {
      tensor {
        dtype: DT_INT32
        tensor_shape {
          dim {
            size: 1
          }
        }
        int_val: 0
      }
    }
  }
}
node {
  name: "LSTM_1/weight_regularizer_2/Sum"
  op: "Sum"
  input: "LSTM_1/weight_regularizer_2/mul"
  input: "LSTM_1/weight_regularizer_2/Const"
  attr {
    key: "T"
    value {
      type: DT_FLOAT
    }
  }
  attr {
    key: "Tidx"
    value {
      type: DT_INT32
    }
  }
  attr {
    key: "keep_dims"
    value {
      b: false
    }
  }
}
node {
  name: "LSTM_1/weight_regularizer_2/add/x"
  op: "Const"
  attr {
    key: "dtype"
    value {
      type: DT_FLOAT
    }
  }
  attr {
    key: "value"
    value {
      tensor {
        dtype: DT_FLOAT
        tensor_shape {
        }
        float_val: 0.0
      }
    }
  }
}
node {
  name: "LSTM_1/weight_regularizer_2/add"
  op: "Add"
  input: "LSTM_1/weight_regularizer_2/add/x"
  input: "LSTM_1/weight_regularizer_2/Sum"
  attr {
    key: "T"
    value {
      type: DT_FLOAT
    }
  }
}
node {
  name: "LSTM_1/strided_slice/stack"
  op: "Const"
  attr {
    key: "dtype"
    value {
      type: DT_INT32
    }
  }
  attr {
    key: "value"
    value {
      tensor {
        dtype: DT_INT32
        tensor_shape {
          dim {
            size: 2
          }
        }
        tensor_content: "\000\000\000\000\000\000\000\000"
      }
    }
  }
}
node {
  name: "LSTM_1/strided_slice/stack_1"
  op: "Const"
  attr {
    key: "dtype"
    value {
      type: DT_INT32
    }
  }
  attr {
    key: "value"
    value {
      tensor {
        dtype: DT_INT32
        tensor_shape {
          dim {
            size: 2
          }
        }
        tensor_content: "\000\000\000\000 \000\000\000"
      }
    }
  }
}
node {
  name: "LSTM_1/strided_slice/stack_2"
  op: "Const"
  attr {
    key: "dtype"
    value {
      type: DT_INT32
    }
  }
  attr {
    key: "value"
    value {
      tensor {
        dtype: DT_INT32
        tensor_shape {
          dim {
            size: 2
          }
        }
        tensor_content: "\001\000\000\000\001\000\000\000"
      }
    }
  }
}
node {
  name: "LSTM_1/strided_slice"
  op: "StridedSlice"
  input: "LSTM_1/kernel/read"
  input: "LSTM_1/strided_slice/stack"
  input: "LSTM_1/strided_slice/stack_1"
  input: "LSTM_1/strided_slice/stack_2"
  attr {
    key: "Index"
    value {
      type: DT_INT32
    }
  }
  attr {
    key: "T"
    value {
      type: DT_FLOAT
    }
  }
  attr {
    key: "begin_mask"
    value {
      i: 3
    }
  }
  attr {
    key: "ellipsis_mask"
    value {
      i: 0
    }
  }
  attr {
    key: "end_mask"
    value {
      i: 1
    }
  }
  attr {
    key: "new_axis_mask"
    value {
      i: 0
    }
  }
  attr {
    key: "shrink_axis_mask"
    value {
      i: 0
    }
  }
}
node {
  name: "LSTM_1/strided_slice_1/stack"
  op: "Const"
  attr {
    key: "dtype"
    value {
      type: DT_INT32
    }
  }
  attr {
    key: "value"
    value {
      tensor {
        dtype: DT_INT32
        tensor_shape {
          dim {
            size: 2
          }
        }
        tensor_content: "\000\000\000\000 \000\000\000"
      }
    }
  }
}
node {
  name: "LSTM_1/strided_slice_1/stack_1"
  op: "Const"
  attr {
    key: "dtype"
    value {
      type: DT_INT32
    }
  }
  attr {
    key: "value"
    value {
      tensor {
        dtype: DT_INT32
        tensor_shape {
          dim {
            size: 2
          }
        }
        tensor_content: "\000\000\000\000@\000\000\000"
      }
    }
  }
}
node {
  name: "LSTM_1/strided_slice_1/stack_2"
  op: "Const"
  attr {
    key: "dtype"
    value {
      type: DT_INT32
    }
  }
  attr {
    key: "value"
    value {
      tensor {
        dtype: DT_INT32
        tensor_shape {
          dim {
            size: 2
          }
        }
        tensor_content: "\001\000\000\000\001\000\000\000"
      }
    }
  }
}
node {
  name: "LSTM_1/strided_slice_1"
  op: "StridedSlice"
  input: "LSTM_1/kernel/read"
  input: "LSTM_1/strided_slice_1/stack"
  input: "LSTM_1/strided_slice_1/stack_1"
  input: "LSTM_1/strided_slice_1/stack_2"
  attr {
    key: "Index"
    value {
      type: DT_INT32
    }
  }
  attr {
    key: "T"
    value {
      type: DT_FLOAT
    }
  }
  attr {
    key: "begin_mask"
    value {
      i: 1
    }
  }
  attr {
    key: "ellipsis_mask"
    value {
      i: 0
    }
  }
  attr {
    key: "end_mask"
    value {
      i: 1
    }
  }
  attr {
    key: "new_axis_mask"
    value {
      i: 0
    }
  }
  attr {
    key: "shrink_axis_mask"
    value {
      i: 0
    }
  }
}
node {
  name: "LSTM_1/strided_slice_2/stack"
  op: "Const"
  attr {
    key: "dtype"
    value {
      type: DT_INT32
    }
  }
  attr {
    key: "value"
    value {
      tensor {
        dtype: DT_INT32
        tensor_shape {
          dim {
            size: 2
          }
        }
        tensor_content: "\000\000\000\000@\000\000\000"
      }
    }
  }
}
node {
  name: "LSTM_1/strided_slice_2/stack_1"
  op: "Const"
  attr {
    key: "dtype"
    value {
      type: DT_INT32
    }
  }
  attr {
    key: "value"
    value {
      tensor {
        dtype: DT_INT32
        tensor_shape {
          dim {
            size: 2
          }
        }
        tensor_content: "\000\000\000\000`\000\000\000"
      }
    }
  }
}
node {
  name: "LSTM_1/strided_slice_2/stack_2"
  op: "Const"
  attr {
    key: "dtype"
    value {
      type: DT_INT32
    }
  }
  attr {
    key: "value"
    value {
      tensor {
        dtype: DT_INT32
        tensor_shape {
          dim {
            size: 2
          }
        }
        tensor_content: "\001\000\000\000\001\000\000\000"
      }
    }
  }
}
node {
  name: "LSTM_1/strided_slice_2"
  op: "StridedSlice"
  input: "LSTM_1/kernel/read"
  input: "LSTM_1/strided_slice_2/stack"
  input: "LSTM_1/strided_slice_2/stack_1"
  input: "LSTM_1/strided_slice_2/stack_2"
  attr {
    key: "Index"
    value {
      type: DT_INT32
    }
  }
  attr {
    key: "T"
    value {
      type: DT_FLOAT
    }
  }
  attr {
    key: "begin_mask"
    value {
      i: 1
    }
  }
  attr {
    key: "ellipsis_mask"
    value {
      i: 0
    }
  }
  attr {
    key: "end_mask"
    value {
      i: 1
    }
  }
  attr {
    key: "new_axis_mask"
    value {
      i: 0
    }
  }
  attr {
    key: "shrink_axis_mask"
    value {
      i: 0
    }
  }
}
node {
  name: "LSTM_1/strided_slice_3/stack"
  op: "Const"
  attr {
    key: "dtype"
    value {
      type: DT_INT32
    }
  }
  attr {
    key: "value"
    value {
      tensor {
        dtype: DT_INT32
        tensor_shape {
          dim {
            size: 2
          }
        }
        tensor_content: "\000\000\000\000`\000\000\000"
      }
    }
  }
}
node {
  name: "LSTM_1/strided_slice_3/stack_1"
  op: "Const"
  attr {
    key: "dtype"
    value {
      type: DT_INT32
    }
  }
  attr {
    key: "value"
    value {
      tensor {
        dtype: DT_INT32
        tensor_shape {
          dim {
            size: 2
          }
        }
        tensor_content: "\000\000\000\000\000\000\000\000"
      }
    }
  }
}
node {
  name: "LSTM_1/strided_slice_3/stack_2"
  op: "Const"
  attr {
    key: "dtype"
    value {
      type: DT_INT32
    }
  }
  attr {
    key: "value"
    value {
      tensor {
        dtype: DT_INT32
        tensor_shape {
          dim {
            size: 2
          }
        }
        tensor_content: "\001\000\000\000\001\000\000\000"
      }
    }
  }
}
node {
  name: "LSTM_1/strided_slice_3"
  op: "StridedSlice"
  input: "LSTM_1/kernel/read"
  input: "LSTM_1/strided_slice_3/stack"
  input: "LSTM_1/strided_slice_3/stack_1"
  input: "LSTM_1/strided_slice_3/stack_2"
  attr {
    key: "Index"
    value {
      type: DT_INT32
    }
  }
  attr {
    key: "T"
    value {
      type: DT_FLOAT
    }
  }
  attr {
    key: "begin_mask"
    value {
      i: 1
    }
  }
  attr {
    key: "ellipsis_mask"
    value {
      i: 0
    }
  }
  attr {
    key: "end_mask"
    value {
      i: 3
    }
  }
  attr {
    key: "new_axis_mask"
    value {
      i: 0
    }
  }
  attr {
    key: "shrink_axis_mask"
    value {
      i: 0
    }
  }
}
node {
  name: "LSTM_1/strided_slice_4/stack"
  op: "Const"
  attr {
    key: "dtype"
    value {
      type: DT_INT32
    }
  }
  attr {
    key: "value"
    value {
      tensor {
        dtype: DT_INT32
        tensor_shape {
          dim {
            size: 2
          }
        }
        tensor_content: "\000\000\000\000\000\000\000\000"
      }
    }
  }
}
node {
  name: "LSTM_1/strided_slice_4/stack_1"
  op: "Const"
  attr {
    key: "dtype"
    value {
      type: DT_INT32
    }
  }
  attr {
    key: "value"
    value {
      tensor {
        dtype: DT_INT32
        tensor_shape {
          dim {
            size: 2
          }
        }
        tensor_content: "\000\000\000\000 \000\000\000"
      }
    }
  }
}
node {
  name: "LSTM_1/strided_slice_4/stack_2"
  op: "Const"
  attr {
    key: "dtype"
    value {
      type: DT_INT32
    }
  }
  attr {
    key: "value"
    value {
      tensor {
        dtype: DT_INT32
        tensor_shape {
          dim {
            size: 2
          }
        }
        tensor_content: "\001\000\000\000\001\000\000\000"
      }
    }
  }
}
node {
  name: "LSTM_1/strided_slice_4"
  op: "StridedSlice"
  input: "LSTM_1/recurrent_kernel/read"
  input: "LSTM_1/strided_slice_4/stack"
  input: "LSTM_1/strided_slice_4/stack_1"
  input: "LSTM_1/strided_slice_4/stack_2"
  attr {
    key: "Index"
    value {
      type: DT_INT32
    }
  }
  attr {
    key: "T"
    value {
      type: DT_FLOAT
    }
  }
  attr {
    key: "begin_mask"
    value {
      i: 3
    }
  }
  attr {
    key: "ellipsis_mask"
    value {
      i: 0
    }
  }
  attr {
    key: "end_mask"
    value {
      i: 1
    }
  }
  attr {
    key: "new_axis_mask"
    value {
      i: 0
    }
  }
  attr {
    key: "shrink_axis_mask"
    value {
      i: 0
    }
  }
}
node {
  name: "LSTM_1/strided_slice_5/stack"
  op: "Const"
  attr {
    key: "dtype"
    value {
      type: DT_INT32
    }
  }
  attr {
    key: "value"
    value {
      tensor {
        dtype: DT_INT32
        tensor_shape {
          dim {
            size: 2
          }
        }
        tensor_content: "\000\000\000\000 \000\000\000"
      }
    }
  }
}
node {
  name: "LSTM_1/strided_slice_5/stack_1"
  op: "Const"
  attr {
    key: "dtype"
    value {
      type: DT_INT32
    }
  }
  attr {
    key: "value"
    value {
      tensor {
        dtype: DT_INT32
        tensor_shape {
          dim {
            size: 2
          }
        }
        tensor_content: "\000\000\000\000@\000\000\000"
      }
    }
  }
}
node {
  name: "LSTM_1/strided_slice_5/stack_2"
  op: "Const"
  attr {
    key: "dtype"
    value {
      type: DT_INT32
    }
  }
  attr {
    key: "value"
    value {
      tensor {
        dtype: DT_INT32
        tensor_shape {
          dim {
            size: 2
          }
        }
        tensor_content: "\001\000\000\000\001\000\000\000"
      }
    }
  }
}
node {
  name: "LSTM_1/strided_slice_5"
  op: "StridedSlice"
  input: "LSTM_1/recurrent_kernel/read"
  input: "LSTM_1/strided_slice_5/stack"
  input: "LSTM_1/strided_slice_5/stack_1"
  input: "LSTM_1/strided_slice_5/stack_2"
  attr {
    key: "Index"
    value {
      type: DT_INT32
    }
  }
  attr {
    key: "T"
    value {
      type: DT_FLOAT
    }
  }
  attr {
    key: "begin_mask"
    value {
      i: 1
    }
  }
  attr {
    key: "ellipsis_mask"
    value {
      i: 0
    }
  }
  attr {
    key: "end_mask"
    value {
      i: 1
    }
  }
  attr {
    key: "new_axis_mask"
    value {
      i: 0
    }
  }
  attr {
    key: "shrink_axis_mask"
    value {
      i: 0
    }
  }
}
node {
  name: "LSTM_1/strided_slice_6/stack"
  op: "Const"
  attr {
    key: "dtype"
    value {
      type: DT_INT32
    }
  }
  attr {
    key: "value"
    value {
      tensor {
        dtype: DT_INT32
        tensor_shape {
          dim {
            size: 2
          }
        }
        tensor_content: "\000\000\000\000@\000\000\000"
      }
    }
  }
}
node {
  name: "LSTM_1/strided_slice_6/stack_1"
  op: "Const"
  attr {
    key: "dtype"
    value {
      type: DT_INT32
    }
  }
  attr {
    key: "value"
    value {
      tensor {
        dtype: DT_INT32
        tensor_shape {
          dim {
            size: 2
          }
        }
        tensor_content: "\000\000\000\000`\000\000\000"
      }
    }
  }
}
node {
  name: "LSTM_1/strided_slice_6/stack_2"
  op: "Const"
  attr {
    key: "dtype"
    value {
      type: DT_INT32
    }
  }
  attr {
    key: "value"
    value {
      tensor {
        dtype: DT_INT32
        tensor_shape {
          dim {
            size: 2
          }
        }
        tensor_content: "\001\000\000\000\001\000\000\000"
      }
    }
  }
}
node {
  name: "LSTM_1/strided_slice_6"
  op: "StridedSlice"
  input: "LSTM_1/recurrent_kernel/read"
  input: "LSTM_1/strided_slice_6/stack"
  input: "LSTM_1/strided_slice_6/stack_1"
  input: "LSTM_1/strided_slice_6/stack_2"
  attr {
    key: "Index"
    value {
      type: DT_INT32
    }
  }
  attr {
    key: "T"
    value {
      type: DT_FLOAT
    }
  }
  attr {
    key: "begin_mask"
    value {
      i: 1
    }
  }
  attr {
    key: "ellipsis_mask"
    value {
      i: 0
    }
  }
  attr {
    key: "end_mask"
    value {
      i: 1
    }
  }
  attr {
    key: "new_axis_mask"
    value {
      i: 0
    }
  }
  attr {
    key: "shrink_axis_mask"
    value {
      i: 0
    }
  }
}
node {
  name: "LSTM_1/strided_slice_7/stack"
  op: "Const"
  attr {
    key: "dtype"
    value {
      type: DT_INT32
    }
  }
  attr {
    key: "value"
    value {
      tensor {
        dtype: DT_INT32
        tensor_shape {
          dim {
            size: 2
          }
        }
        tensor_content: "\000\000\000\000`\000\000\000"
      }
    }
  }
}
node {
  name: "LSTM_1/strided_slice_7/stack_1"
  op: "Const"
  attr {
    key: "dtype"
    value {
      type: DT_INT32
    }
  }
  attr {
    key: "value"
    value {
      tensor {
        dtype: DT_INT32
        tensor_shape {
          dim {
            size: 2
          }
        }
        tensor_content: "\000\000\000\000\000\000\000\000"
      }
    }
  }
}
node {
  name: "LSTM_1/strided_slice_7/stack_2"
  op: "Const"
  attr {
    key: "dtype"
    value {
      type: DT_INT32
    }
  }
  attr {
    key: "value"
    value {
      tensor {
        dtype: DT_INT32
        tensor_shape {
          dim {
            size: 2
          }
        }
        tensor_content: "\001\000\000\000\001\000\000\000"
      }
    }
  }
}
node {
  name: "LSTM_1/strided_slice_7"
  op: "StridedSlice"
  input: "LSTM_1/recurrent_kernel/read"
  input: "LSTM_1/strided_slice_7/stack"
  input: "LSTM_1/strided_slice_7/stack_1"
  input: "LSTM_1/strided_slice_7/stack_2"
  attr {
    key: "Index"
    value {
      type: DT_INT32
    }
  }
  attr {
    key: "T"
    value {
      type: DT_FLOAT
    }
  }
  attr {
    key: "begin_mask"
    value {
      i: 1
    }
  }
  attr {
    key: "ellipsis_mask"
    value {
      i: 0
    }
  }
  attr {
    key: "end_mask"
    value {
      i: 3
    }
  }
  attr {
    key: "new_axis_mask"
    value {
      i: 0
    }
  }
  attr {
    key: "shrink_axis_mask"
    value {
      i: 0
    }
  }
}
node {
  name: "LSTM_1/strided_slice_8/stack"
  op: "Const"
  attr {
    key: "dtype"
    value {
      type: DT_INT32
    }
  }
  attr {
    key: "value"
    value {
      tensor {
        dtype: DT_INT32
        tensor_shape {
          dim {
            size: 1
          }
        }
        int_val: 0
      }
    }
  }
}
node {
  name: "LSTM_1/strided_slice_8/stack_1"
  op: "Const"
  attr {
    key: "dtype"
    value {
      type: DT_INT32
    }
  }
  attr {
    key: "value"
    value {
      tensor {
        dtype: DT_INT32
        tensor_shape {
          dim {
            size: 1
          }
        }
        int_val: 32
      }
    }
  }
}
node {
  name: "LSTM_1/strided_slice_8/stack_2"
  op: "Const"
  attr {
    key: "dtype"
    value {
      type: DT_INT32
    }
  }
  attr {
    key: "value"
    value {
      tensor {
        dtype: DT_INT32
        tensor_shape {
          dim {
            size: 1
          }
        }
        int_val: 1
      }
    }
  }
}
node {
  name: "LSTM_1/strided_slice_8"
  op: "StridedSlice"
  input: "LSTM_1/bias/read"
  input: "LSTM_1/strided_slice_8/stack"
  input: "LSTM_1/strided_slice_8/stack_1"
  input: "LSTM_1/strided_slice_8/stack_2"
  attr {
    key: "Index"
    value {
      type: DT_INT32
    }
  }
  attr {
    key: "T"
    value {
      type: DT_FLOAT
    }
  }
  attr {
    key: "begin_mask"
    value {
      i: 1
    }
  }
  attr {
    key: "ellipsis_mask"
    value {
      i: 0
    }
  }
  attr {
    key: "end_mask"
    value {
      i: 0
    }
  }
  attr {
    key: "new_axis_mask"
    value {
      i: 0
    }
  }
  attr {
    key: "shrink_axis_mask"
    value {
      i: 0
    }
  }
}
node {
  name: "LSTM_1/strided_slice_9/stack"
  op: "Const"
  attr {
    key: "dtype"
    value {
      type: DT_INT32
    }
  }
  attr {
    key: "value"
    value {
      tensor {
        dtype: DT_INT32
        tensor_shape {
          dim {
            size: 1
          }
        }
        int_val: 32
      }
    }
  }
}
node {
  name: "LSTM_1/strided_slice_9/stack_1"
  op: "Const"
  attr {
    key: "dtype"
    value {
      type: DT_INT32
    }
  }
  attr {
    key: "value"
    value {
      tensor {
        dtype: DT_INT32
        tensor_shape {
          dim {
            size: 1
          }
        }
        int_val: 64
      }
    }
  }
}
node {
  name: "LSTM_1/strided_slice_9/stack_2"
  op: "Const"
  attr {
    key: "dtype"
    value {
      type: DT_INT32
    }
  }
  attr {
    key: "value"
    value {
      tensor {
        dtype: DT_INT32
        tensor_shape {
          dim {
            size: 1
          }
        }
        int_val: 1
      }
    }
  }
}
node {
  name: "LSTM_1/strided_slice_9"
  op: "StridedSlice"
  input: "LSTM_1/bias/read"
  input: "LSTM_1/strided_slice_9/stack"
  input: "LSTM_1/strided_slice_9/stack_1"
  input: "LSTM_1/strided_slice_9/stack_2"
  attr {
    key: "Index"
    value {
      type: DT_INT32
    }
  }
  attr {
    key: "T"
    value {
      type: DT_FLOAT
    }
  }
  attr {
    key: "begin_mask"
    value {
      i: 0
    }
  }
  attr {
    key: "ellipsis_mask"
    value {
      i: 0
    }
  }
  attr {
    key: "end_mask"
    value {
      i: 0
    }
  }
  attr {
    key: "new_axis_mask"
    value {
      i: 0
    }
  }
  attr {
    key: "shrink_axis_mask"
    value {
      i: 0
    }
  }
}
node {
  name: "LSTM_1/strided_slice_10/stack"
  op: "Const"
  attr {
    key: "dtype"
    value {
      type: DT_INT32
    }
  }
  attr {
    key: "value"
    value {
      tensor {
        dtype: DT_INT32
        tensor_shape {
          dim {
            size: 1
          }
        }
        int_val: 64
      }
    }
  }
}
node {
  name: "LSTM_1/strided_slice_10/stack_1"
  op: "Const"
  attr {
    key: "dtype"
    value {
      type: DT_INT32
    }
  }
  attr {
    key: "value"
    value {
      tensor {
        dtype: DT_INT32
        tensor_shape {
          dim {
            size: 1
          }
        }
        int_val: 96
      }
    }
  }
}
node {
  name: "LSTM_1/strided_slice_10/stack_2"
  op: "Const"
  attr {
    key: "dtype"
    value {
      type: DT_INT32
    }
  }
  attr {
    key: "value"
    value {
      tensor {
        dtype: DT_INT32
        tensor_shape {
          dim {
            size: 1
          }
        }
        int_val: 1
      }
    }
  }
}
node {
  name: "LSTM_1/strided_slice_10"
  op: "StridedSlice"
  input: "LSTM_1/bias/read"
  input: "LSTM_1/strided_slice_10/stack"
  input: "LSTM_1/strided_slice_10/stack_1"
  input: "LSTM_1/strided_slice_10/stack_2"
  attr {
    key: "Index"
    value {
      type: DT_INT32
    }
  }
  attr {
    key: "T"
    value {
      type: DT_FLOAT
    }
  }
  attr {
    key: "begin_mask"
    value {
      i: 0
    }
  }
  attr {
    key: "ellipsis_mask"
    value {
      i: 0
    }
  }
  attr {
    key: "end_mask"
    value {
      i: 0
    }
  }
  attr {
    key: "new_axis_mask"
    value {
      i: 0
    }
  }
  attr {
    key: "shrink_axis_mask"
    value {
      i: 0
    }
  }
}
node {
  name: "LSTM_1/strided_slice_11/stack"
  op: "Const"
  attr {
    key: "dtype"
    value {
      type: DT_INT32
    }
  }
  attr {
    key: "value"
    value {
      tensor {
        dtype: DT_INT32
        tensor_shape {
          dim {
            size: 1
          }
        }
        int_val: 96
      }
    }
  }
}
node {
  name: "LSTM_1/strided_slice_11/stack_1"
  op: "Const"
  attr {
    key: "dtype"
    value {
      type: DT_INT32
    }
  }
  attr {
    key: "value"
    value {
      tensor {
        dtype: DT_INT32
        tensor_shape {
          dim {
            size: 1
          }
        }
        int_val: 0
      }
    }
  }
}
node {
  name: "LSTM_1/strided_slice_11/stack_2"
  op: "Const"
  attr {
    key: "dtype"
    value {
      type: DT_INT32
    }
  }
  attr {
    key: "value"
    value {
      tensor {
        dtype: DT_INT32
        tensor_shape {
          dim {
            size: 1
          }
        }
        int_val: 1
      }
    }
  }
}
node {
  name: "LSTM_1/strided_slice_11"
  op: "StridedSlice"
  input: "LSTM_1/bias/read"
  input: "LSTM_1/strided_slice_11/stack"
  input: "LSTM_1/strided_slice_11/stack_1"
  input: "LSTM_1/strided_slice_11/stack_2"
  attr {
    key: "Index"
    value {
      type: DT_INT32
    }
  }
  attr {
    key: "T"
    value {
      type: DT_FLOAT
    }
  }
  attr {
    key: "begin_mask"
    value {
      i: 0
    }
  }
  attr {
    key: "ellipsis_mask"
    value {
      i: 0
    }
  }
  attr {
    key: "end_mask"
    value {
      i: 1
    }
  }
  attr {
    key: "new_axis_mask"
    value {
      i: 0
    }
  }
  attr {
    key: "shrink_axis_mask"
    value {
      i: 0
    }
  }
}
node {
  name: "LSTM_1/zeros_like"
  op: "ZerosLike"
  input: "LSTM_1_input"
  attr {
    key: "T"
    value {
      type: DT_FLOAT
    }
  }
}
node {
  name: "LSTM_1/Sum/reduction_indices"
  op: "Const"
  attr {
    key: "dtype"
    value {
      type: DT_INT32
    }
  }
  attr {
    key: "value"
    value {
      tensor {
        dtype: DT_INT32
        tensor_shape {
          dim {
            size: 2
          }
        }
        tensor_content: "\001\000\000\000\002\000\000\000"
      }
    }
  }
}
node {
  name: "LSTM_1/Sum"
  op: "Sum"
  input: "LSTM_1/zeros_like"
  input: "LSTM_1/Sum/reduction_indices"
  attr {
    key: "T"
    value {
      type: DT_FLOAT
    }
  }
  attr {
    key: "Tidx"
    value {
      type: DT_INT32
    }
  }
  attr {
    key: "keep_dims"
    value {
      b: false
    }
  }
}
node {
  name: "LSTM_1/ExpandDims/dim"
  op: "Const"
  attr {
    key: "dtype"
    value {
      type: DT_INT32
    }
  }
  attr {
    key: "value"
    value {
      tensor {
        dtype: DT_INT32
        tensor_shape {
        }
        int_val: -1
      }
    }
  }
}
node {
  name: "LSTM_1/ExpandDims"
  op: "ExpandDims"
  input: "LSTM_1/Sum"
  input: "LSTM_1/ExpandDims/dim"
  attr {
    key: "T"
    value {
      type: DT_FLOAT
    }
  }
  attr {
    key: "Tdim"
    value {
      type: DT_INT32
    }
  }
}
node {
  name: "LSTM_1/Tile/multiples"
  op: "Const"
  attr {
    key: "dtype"
    value {
      type: DT_INT32
    }
  }
  attr {
    key: "value"
    value {
      tensor {
        dtype: DT_INT32
        tensor_shape {
          dim {
            size: 2
          }
        }
        tensor_content: "\001\000\000\000 \000\000\000"
      }
    }
  }
}
node {
  name: "LSTM_1/Tile"
  op: "Tile"
  input: "LSTM_1/ExpandDims"
  input: "LSTM_1/Tile/multiples"
  attr {
    key: "T"
    value {
      type: DT_FLOAT
    }
  }
  attr {
    key: "Tmultiples"
    value {
      type: DT_INT32
    }
  }
}
node {
  name: "LSTM_1/Tile_1/multiples"
  op: "Const"
  attr {
    key: "dtype"
    value {
      type: DT_INT32
    }
  }
  attr {
    key: "value"
    value {
      tensor {
        dtype: DT_INT32
        tensor_shape {
          dim {
            size: 2
          }
        }
        tensor_content: "\001\000\000\000 \000\000\000"
      }
    }
  }
}
node {
  name: "LSTM_1/Tile_1"
  op: "Tile"
  input: "LSTM_1/ExpandDims"
  input: "LSTM_1/Tile_1/multiples"
  attr {
    key: "T"
    value {
      type: DT_FLOAT
    }
  }
  attr {
    key: "Tmultiples"
    value {
      type: DT_INT32
    }
  }
}
node {
  name: "LSTM_1/transpose/perm"
  op: "Const"
  attr {
    key: "dtype"
    value {
      type: DT_INT32
    }
  }
  attr {
    key: "value"
    value {
      tensor {
        dtype: DT_INT32
        tensor_shape {
          dim {
            size: 3
          }
        }
        tensor_content: "\001\000\000\000\000\000\000\000\002\000\000\000"
      }
    }
  }
}
node {
  name: "LSTM_1/transpose"
  op: "Transpose"
  input: "LSTM_1_input"
  input: "LSTM_1/transpose/perm"
  attr {
    key: "T"
    value {
      type: DT_FLOAT
    }
  }
  attr {
    key: "Tperm"
    value {
      type: DT_INT32
    }
  }
}
node {
  name: "LSTM_1/Shape"
  op: "Shape"
  input: "LSTM_1/transpose"
  attr {
    key: "T"
    value {
      type: DT_FLOAT
    }
  }
  attr {
    key: "out_type"
    value {
      type: DT_INT32
    }
  }
}
node {
  name: "LSTM_1/strided_slice_12/stack"
  op: "Const"
  attr {
    key: "dtype"
    value {
      type: DT_INT32
    }
  }
  attr {
    key: "value"
    value {
      tensor {
        dtype: DT_INT32
        tensor_shape {
          dim {
            size: 1
          }
        }
        int_val: 0
      }
    }
  }
}
node {
  name: "LSTM_1/strided_slice_12/stack_1"
  op: "Const"
  attr {
    key: "dtype"
    value {
      type: DT_INT32
    }
  }
  attr {
    key: "value"
    value {
